3D507C85
3D422681
BD76FD22
BD0240B8
BDB645A2
3BB78034
3CFF9724
BB378034
3E018937
BBBAC711
3DA5460B
BDB6E2EB
BD49EECC
3D3FB15B
BBD1B717
3D3573EB
BB3E0DED
BBF5C28F
3D0E8A72
BDABD3C3
BCB1C433
3D39F55A
BD144674
BC7F9724
BD315B57
3D2ACD9F
BD542C3D
3D257A78
BD243FE6
3CE8A71E
3DAF1AA0
3D058794
