3DADA5DB
3D04B7F6
3D0E6299
3D8975B0
3BA79F16
BD98E5C5
3E121816
3D200E28
BCA85016
BD5F97AB
BD2F251C
BC802C0A
3B12B3CC
BB3511C5
BD5083DC
BC29691A
BD43CAFB
BD9E9E1B
BE050721
BD0BB1AF
3D6E72DA
BD8D91EF
BD61B7E1
BBCBB49F
3D054BCF
BD85ADDA
BD31CFBC
3D3DD335
BBE4B521
BD2CB85A
3D194F27
3BB99334
BC9830E4
BD666773
3CF674D1
3C4D898B
3DCD7F0F
3D3314CB
BD251C19
BB84E684
3CE618CE
3DB8EFBB
BC8C6B48
BCF9F666
3CB9D5E5
BCDE0935
BB00EA76
BBBF21E9
BD1FBF83
3DBAB085
3D46173C
3DA47C31
3D6A52F0
3D8E5EEE
3CE04C06
398098ED
3DB23CC9
3DA2CD3A
3D26516E
BB057D83
BCD75E20
3C8BED74
3CBBF940
3D4B9A9E
3C916CA4
BD47D6F9
BC75FD48
BD4DEF41
3C93836B
3DF6C376
BD55E397
BC381733
3D27B6FE
3DB9C27F
3BAEB159
BDA3C4B1
3DEDDACF
3D50203E
3C30EA18
3D598394
BB4595A1
BB3455DE
BCB71540
3E1AB756
3D082279
3D16B980
3D8ED45F
3DD39970
3DCBC16A
3D8B838C
3D1C5825
3C931444
BD8503FB
BD13D31C
BD25AEE6
BD982ECB
3C135B92
3DFA43FE
3D2BEF07
BCB606B8
3D0C6C55
BCE49B20
BCE1693C
BD5B0468
3CB19A41
3D4AD14A
3D841FEB
BA5BC15C
3CF496AB
BDCA6117
BD9A4D6E
3D58E219
BD176684
3D04E1E7
3D455864
3D78A5CE
3D302B41
BDFB6ED6
3D86A5D7
3D039475
BC9E6EEB
3DB1D4FA
BCE1B6D4
BD389C5E
BDF02603
3DD0D068
3C93E3E3
3C1AA02A
3DC883FD
3BAFCB34
BD89331A
BDF18FC5
3D28AC5C
3C803CD1
3C9567DC
BCAD01C1
BCD0AEDA
3CED783E
3CEEF1BB
3DD8548B
BD9913E8
BC1BA4A1
BD16D5D0
BE3CA42B
3D1CA07F
3D736AC6
3D253112
3D2CADDE
3DAF47B6
3D7A083A
3DD14E3C
3DB607C4
3CA09678
3D0FCC5C
BCD34DF0
3D01FA76
3CE9C23B
3D1EEBB3
3D3A5094
3C5A6613
3D8D3E0C
3CA9F59D
3CBD05AF
3D1323FF
3D275AB8
3D1F40A3
3C15C3B7
3E032F45
BD97329C
3B91918D
3D8DD69D
3D3481B2
3C9AA1D7
3DB69878
3D9E2AC3
3D348D3B
BD017870
3D6BABEB
3D306812
3D6EA961
BD1BCFD5
BB113F58
3DAB90A8
3DECCA2E
3DC5796C
3DA9289E
3D6EDFE7
3DDA511A
3DC189BE
BD79F01C
3CF3929F
3E047C31
3DB673C5
3DA23183
3C92556D
3D678078
3D911BE7
3DD2599F
3E38C7E3
3DE94EE4
3D9D5A18
3D3DC8B8
3CC473CD
3DC0EE8D
BCFC84B6
3D6A582E
3CA30553
BB7D199C
3C212077
BC0B1B52
3D5EF0F1
3C5DE376
BDC2EA96
BD4FE692
BDACAFF7
BB4C2BBD
3D5FFF7A
3CC14834
3CB5115A
BC8D0247
3D201DE2
BDA6E547
3B4699AD
BD3B58D1
3DBBAE47
BD253544
BA8C139F
3CA7136A
BD58B503
BCB2C83F
3CC4EB57
3D62E4D2
3C53B6CC
BBCCFA19
BCE3FBBD
3D2C4A41
BC2D2136
BC4A105A
BCCF9E38
BCFD8490
BC55CB79
3D5A5871
BD3400B9
BB336CA9
3D6733EC
3D2494D5
3CECD6C3
3D8507A7
3DED527E
3D3B7D85
3DAAEB81
BCB0A2CB
BBEEC03D
3D6646F1
3DF6D86F
3D576790
3D7ACF74
3D65EDD0
3D9CE8D9
3C5AEC4A
3D58DAC2
3D0520D1
3DA97636
3D812CF1
3DBBFD72
3DC8B7E5
BD0DCDB3
3C233E5E
BD7E1A82
3DC7F66F
3C869403
BDC93AF7
3C3A83F5
3BC7467B
3D986339
3DF7F8CB
BBE9F1A1
3CE29D84
BACA9C71
3DBBF834
3D3733A9
3DAD5B68
3E041893
3E090FF9
3DC8A3F9
3DE44524
3D22D949
BD43A323
3C064F3A
3C3BC2B9
3C557364
3D758299
3C841462
3DB172EF
3D869D73
3D919EF9
3D3F3387
BBA209AB
3D2E7F6F
3C879E5A
3D05B079
3DE046C7
BDA79E5A
BE52A5A4
BE3FD60F
BE2302B4
BD44E725
BB275544
3DDA708F
BDCCAAB9
BE0DF7A5
BDE5B424
BE09EC2D
3C55629E
3E01B5C8
3D79C62A
BD399913
BE1280F1
BDC918E3
BE4E0221
BD8C03FF
3D39FA98
3DB5D9A1
BCC79B35
BD5F1173
BCD6605F
3DADC982
3CFA6DF0
3D77B8D4
3D0D898B
BDB6ADF7
BE448BEB
BE18255B
BC091DB6
3CCFD08D
3DCBD556
3DCE6AFD
BDDBDF8F
BD9F6E3F
BCADCD2D
BD885EC4
BA612F2F
3D898AA8
3CCF227D
3CD06BBE
BC66A769
3D4C8DE3
BD553EF7
3D6E221D
3B83B0FA
3DE3736D
3D0A47ED
BE35B2D5
BE1A7B0B
BDBD2D02
3D0B7B29
BD210ADD
3DFC4B0A
BC048D2D
BD2C2ACC
BD8793DE
BD188F43
3C1C7582
BD83AD19
3D80B1BC
BCA75686
BE0469D7
BB3C5D13
BC8FDE2F
BC1926AD
BD45D207
3D90025C
BDD67232
BD8EB895
BDE9DC72
BBA8099F
3C0E7727
BD17C5EF
3D18F2E0
BDCA73F7
BE83126F
BD3C8E26
3BEA2D30
3B413B9F
3D830FD0
3DC0C6B5
BE27C5AC
BE69BCFD
3C92E83A
3DAF533F
3CD20F2C
3D477250
3D7442C8
BD300CD8
BD7E5D9E
3D19FA12
BD803361
BD019D24
39928C8A
3D76B2AF
3D9096BC
3D5C4546
BB3E9780
BD0D7492
BD0F13CF
3CCDEC1C
3DA6B26C
3DBDB6E5
BC93C46E
BD210BE9
3D8CE810
3DCA5721
3DC8850A
3DA6E3B4
3DA7B353
BBA2694C
BDBCE0FC
3DE7FA1A
3DCC16DF
BC088723
3CE4C2F8
3DFE5C92
BD2A747E
3C912557
3E3CFFEB
3E56238E
3E24E26D
BD305532
BD806C01
3B3BF6BC
3CEF36F0
3C9A4DF4
BDCC1EBD
BE0C4EF9
BC058FF7
BD9422CD
3CD594F2
3CD5FDCE
BD07EAE6
3D1EB95E
3D3CCAF7
BBA87D62
3CC7DE51
3C0082DD
BDCF0846
3AE01B5E
3C903644
3CAE2110
3C0FC6B2
3D733333
3D3AB756
BCD6DA01
3D5A187A
3D0C77DE
3CC04A73
3D985F8D
3D87E847
3E1AC711
BC361FE2
3D73BC90
3D5CFBB9
3D06F36F
3D9635E7
3DE61D00
3DCC0C63
BD1985AD
3DBB6CBE
3DE24895
3DF2031D
3D8DF8B1
3CF748A1
BD9F1F9B
3DB19158
3E259210
3C46DE76
BD6D2FE4
BD448494
BD68BD23
3BF6AAED
3DB3111F
BD7F0DC7
BD02CC2D
3D0420F7
BD95D24A
3D02C5E3
3E004428
3DB8F473
3D0EB67C
3CF6CACD
3DB7B396
399FFC8A
BB95DEFA
3C7D3B2A
BC6D56B0
3CE69CED
3BF6738F
3D48637C
3D4A2FCF
3C4297C0
3AD452D3
3C7BCA10
3D05436C
3E574928
3DA48733
BC784018
3CB08356
3DB0A915
3E0307F2
BDB080B6
3DE631F9
3D9D5348
3DE80496
3DB235F8
3D54C554
3D4F1F58
BD272218
BD9E5FB7
BB09D42A
3D4F5B1D
BC30813D
BC3FDB4D
3C037ADF
3D9E4367
BC8244E9
BCB24E9C
BCC0FA9C
3D0F0414
3DCCA255
3DB92429
3D439BCC
3D96FC16
3CBB9496
3DEB367A
3DA9C90C
3D4E8965
3E5E00D2
3CE6EEB7
3D64BDBA
BAA25F3B
3D8A70D2
3D6C9C0B
3C87980F
BD49EBA7
BCC68CAC
BC9B738E
3CCD727A
3DAA4D2B
3CE8900C
3CDF2021
BC9AB8E9
3C3966BE
3C9843C4
3D324207
3CEE5259
3D9055B9
3DBBDC6A
BC93C89F
3DBF9831
3BA0DF08
3DE5B963
3DB5F139
3D21DB87
3CF36AC6
BB99D5FF
3DD691A7
3D411C2A
3D1AF295
3D7F8445
3D6327EE
BCA43138
3D50203E
3D47E7C0
3DF1DE6A
3E1D3ED5
3CB52C9D
3B9B357B
3C2FBC1B
3DA3BFF9
3D3DD65A
3B7BAD8B
BD29A2C6
3C74B620
BD2236C1
3CB1F688
3D28BC17
BCB8F9B1
BD4A1F08
3D74B513
3DA8AEFB
3D9BDC6A
BCB96D09
BD0E7792
3CBA51A0
3D3EA91E
3D99DB23
3D67D780
3D8A6E33
3D9B2E5A
BD0811B2
BC260D45
3D37A80D
BC1F92D8
3D132724
3D351BD6
3D986FCE
3C7340D5
3ADE6729
BD12C6AC
3D067CF2
3C988095
3DAD2D45
3E1595FF
BDD05D10
3B34DA68
3D3CFA27
3A7DCD76
3DA4AF92
3D561A1E
3CC51117
BD9BC904
3E2DA661
3DFD1CC1
BC21C623
3D05C9A3
3B910EB1
3DBDBA0A
BBCB0F5D
3D80AF1D
BD85EA25
BD776F6D
3C93EC46
BC4FC82A
3D7BA776
3D82949A
3CBF8551
3D367F4E
3D40EBEE
BBB228DD
3CA4D8FD
3C83C6C9
BD84113C
BCBCAB82
BD832A06
BC9E3001
3DB56217
3DE5AEE6
3C9DB446
3D666A98
BC0CD63D
3DE05682
3DEFF195
3B66E57D
3CDC3372
3CFC9364
3C155490
3D114D2F
3D5F6556
BC30DD83
3E0100E7
3E1C2E34
3E46D480
BD1A9542
3D2A0DBB
3E1A708F
3D912770
BBA30701
3D152D23
BD342CC3
3D429F17
3E0855DA
BC841893
BD966517
BDB0B179
BDBDD7ED
3D3A4C62
3D8F850E
BDB75D9A
BDEDB0DE
BAD21BC1
3D258C4C
3D01E03F
3D0EFCBD
3D8FDE2F
3C198AEC
3D2F76E6
3DB700CE
3D03FF69
3D1B9629
BD577EA2
BD41F751
BCDB78CD
BD2C27A6
3D07852F
3CC50269
3DB7F5A5
3E314E3C
3D6CB535
3D9F7058
3D809353
3D191EEB
BBFEC3C0
3D6BDE40
3E23EC03
3D338822
3D7954EB
BD9F0A1C
3BA6421F
BC8E3476
BD09F0E5
3D58B503
BD4E171A
3E08D64D
3D46E08F
BD525BB8
3DA99D02
BD154973
3C664F55
BCB62A5E
3D14D834
3D1231C6
BCD94291
3D5C8861
BD67CD03
3D79207D
3DF251C2
3D868449
3CF3C70D
3C404428
3D157796
3DB1E215
3E00B242
3DB5A31A
BC442A67
3D029E0A
3D4486AD
3D97D849
3B6A091E
3D7994E2
BD311D7A
3D3E33AD
BC4332F0
3D919D67
3C656473
3D139325
3E22877F
3C1594BD
3BF74470
3C5C1A48
3CA68F4B
BB884838
3C13ED88
3DE44FA0
3D0B88CA
BC238E0F
3D37AF64
3D87BD49
3D615B9A
3D000000
3E16E04C
3D8EA9E7
BD9CD573
3DEA7EFA
3DE61D00
3D25DF22
3DEBD902
BE2F6944
3D0D24E1
3CBF22C0
3DA66A98
3D8521DE
3DB783E0
3DE9C77A
3D093B7E
3DD13E81
3CEAAF36
39607D59
3D1B163C
3DB3BC90
3D810A57
3E07A398
3D2DF1E1
3D070FBF
BC760E0F
3DBB8CB9
3C22A03E
3CC3F5F9
BC82CB21
3BACFFA8
BB65979F
BC032980
BBFE02D0
3CE12839
3D0BA733
3D375537
BB9458E8
BC63B470
BAF57208
3D0AF3E4
BC8C154D
3CBDD767
3D37878B
3CDF223A
BD6B8B69
3B753FB3
3D338822
3D1C3697
3CA832BA
3D67136A
3D7316E3
BCC61F9F
3CF53A3F
BCFF583A
3D4A98AB
BCBA3CA7
BC46CDAF
3D36A1E8
3D24DD2F
3D8B8CFC
BD346456
BCA82624
BC70E0A8
BB8EF4FB
3D39BCBA
3C400970
3C8C6D61
3D39BDC7
BAF9C8AE
3C4896DD
BB30AA57
3D8DB595
3D14024B
BCB42EDC
3C7CE315
BD4A361A
3CC5E0B5
3CED5F14
3D6B8E8F
3D394A6F
BC946E4C
BD72AAE3
BA01811F
3CC52E73
BC84449E
BC386F48
3D8D1959
3A17E83F
3D9E73A3
BD7E5322
3D05D95E
BBD83332
3D19A954
3C697072
3D6F038E
3D189BD8
BC6EC398
BD838972
3BAD977D
3BE73380
BCF56EAD
3CFBBF94
3C49D170
BC2925FF
3D280F13
3C8CCBC0
3D1A2A4E
BD381301
3C6FB2AB
3C064E63
3D6936C6
3C682518
3C72A5A4
3D319E73
3BA52FD0
3B0038A0
BD7C536D
3CB23DD5
3C9F8C22
3CD6F113
3D1347A6
3DA4D1A6
3CB7D417
BD34299E
3CB80CB7
3CC6540D
3C6657B8
3C5C0981
3CB21C47
BCA0BC38
3CF23034
BD89CC32
BD2C18F8
3D5B5FA2
BD22E4D2
3D78D823
BB74582C
3D2E9FF1
3D212B5E
3B1CDF9F
BD94677B
BD120F2C
BD9034B1
B985EDEB
BC37E0AC
3CA87E39
BC5A72A8
BD8E52DF
BC6A9E6F
BB14D1B4
BD10E12F
3A1A09D7
3D4D2F5E
3C9A2835
3C9ACBC9
3CD26B72
3D0A3C64
BDB669CF
BD75568F
3D931CA8
3CBD8384
3CFBA238
3B889565
BD1C9A35
BDA32CA5
3BCEA0E2
BD550FC7
BD31A6D7
BBDBDD0B
3B9AB87E
BD774EEC
BD070974
3C8DB489
BD10FB65
BCD66CF4
3C743C7D
BCF8C650
3CD28D00
3CF179C0
BD107208
3B4F9427
3D123E5C
BC941206
3D6F2629
BC10653D
3AF2099D
BB92BD07
3CDAEA31
BCE974A3
BB1B5F6C
BD384BA1
BB50AAA8
BC9797CC
3AD349BF
BC82E664
BBBAA730
3D1FE111
BC8BB6ED
BCE351DF
BC869E80
BD1B4678
3D69EB20
BC1BA7FC
BC813016
3D54F7A9
3BFEF391
3D1CFAAD
BD3317F0
3D371759
3D27F801
BC343958
BCCCB3A2
BD020818
3D2D3E92
3CFFB04F
3A76F33C
BCB77E1C
3B235FEC
BCD698FE
BD125786
3CFD0D06
3CE76A72
3CA799A2
BD093C8A
BC88D2A2
BDA6362A
BD8E64B2
BCE978D5
BD63193F
B98FD6A2
3B705DCC
BC3866E4
3C95AD10
BCDF8D2E
BC5C0981
BD000219
BD453D21
3CC4CBE2
3CB558A7
BC9CA7D6
3B1784EC
BC2D538B
3D1D8623
BB8821A2
3C907FAA
BD2707E1
3B966963
3CD5CD92
3C8CBD12
BD5B1FAC
3D1DC93F
3C566ADB
BD140FED
BD8E19B9
3D2F177A
3D3353B5
BCC16DF4
BCCA9CDC
3D5C68EC
BD8A0989
BB550B60
BB9E7AAA
3D44D552
BC25CA2A
BD665061
BCF0D413
BC89BF9C
BD0881E4
3C4FF21B
3D0E5604
BC278290
BD5AFF2A
3CD015C2
3C9BFDF8
BC6B0FAE
3CBC2763
3D394EA0
BCD6D19E
BD660D45
3CE54F7B
BD099286
3CD5D80E
BC8DE6DE
3C8F51AD
3CFD8ADB
BD50A99B
BD2D612C
BD0753E7
3D3FCC9F
BB84FED8
3D1C0DB2
3D582774
3CC794EA
BD8C7432
BD7DB8FE
3CB193F7
3D28C9B8
3B5EED61
BD399A20
3D14EB14
3D827C7C
3BBBAA66
3C9F6449
BC21DFB9
3C854CDB
3D95E52A
BB85688A
BC563455
BCE79464
BD239C52
3CB1055C
BC39884C
3CFCD467
BD296F65
3B034D27
BD1439DE
BC195A44
BD5186DB
3C8270F4
BB12486D
BD2CA8A0
BD2FD652
BD0BDFD2
BCD6494D
BC4319C6
BD27E0F0
BCC679CC
BD6234A8
3CC86F05
3DB3FB7A
BC36F5CB
3D0E7DDD
BD18750C
3B70F825
BCC1094A
3D663E8E
3DDBC558
3D54CB9F
3A362EA6
3CCEE5AC
BC839ABF
3B4A9260
BCA9DE8B
3D0792D1
3C9693C0
3CC6DC5D
BD83A7DB
BD9B927D
BCF865D8
BD0AFA2F
BD0DAD32
3D92C493
3B6618CE
BC99B4DD
BD4A58B4
3C8E6080
3BF8FE84
3D8B9991
3DF5BD51
3D94AE43
3D5DCE7D
BD04AE86
BC404C8C
3CAF4ADC
3C74623D
3DC34118
3C5B8BAC
3CEF177A
BBE80B17
BB5DE44C
BD8B5DCC
3C9D8A55
3C840BFE
BCAC6477
3C702C4D
3B31F688
BD604E1E
BC4CA70D
3DEA4FCA
BD1799E5
3CF13059
BC0F24CC
BCB78466
3C84816F
3D0A5EFF
BC91F70E
BD2E6107
BC694680
BD2B5C3A
3D253112
3D089D28
BD366F93
BD18CC14
3B68ED95
3D591AB9
BA44D359
3BE93EF3
BB543145
BC561B2A
3D4B6A62
3CFBF834
3CD68837
3D284AD8
BBD1010F
BDA491B0
BC9C66D3
3B495DAD
BCFA3FCD
BD1F3F96
BBF83CBD
3D946456
BC62B496
BD20168B
3DB62281
3D5E9079
3D1C7369
BCF9B131
3CEEC7C9
BB08D1CB
3D4A0B1C
BD277814
3C02949A
3D3CB5FE
BC99D66B
BD184B1B
3D855C10
BBD3140F
3B19483B
3D08B008
3DA398A6
3D90D413
BD762A5E
3D24D7F1
BC455001
BDB30835
3DADF1E1
BD005B3A
BE35FC3B
BB3A7180
B95D6018
BE3BB83D
BC98B71C
3E25F5AE
BD5B9F99
BD124E16
3D3BA55D
3C94FCE7
BB95F31C
BD8AED14
3D836D22
3CB558A7
BDA7264A
3B7071EE
3D90A915
3D23358F
BE2C985F
BD59ED7C
3D6D3D86
3E00E94F
3D77CAA7
3B7C8953
3DDB76B4
3C2A9F7B
3CE0A633
3C8D9946
3D324B77
39E6E57D
3C82B841
3D8A23C0
3D2B7ED4
3CE56CD7
BC4115DF
BD2A6D26
3CC258D6
3DECB535
3DCCAB3F
3C573C92
BD8FDC16
BCA8198F
BD71BEF5
BD94F3FE
3D28EF78
3C67AB75
BD9FB720
3D8841EE
3DF295EA
3DE501E2
BE1F45E1
BC9947D0
BC35CBFF
BC8A99B7
3E1522A7
3D30AD47
3CDC4A84
3D4853C1
3D7EC248
3D218CE3
38667299
3CCB9ECF
BDCF1801
3D560C7C
3D943BF7
3DD1E109
3C2DFF82
BBB43A2F
3CD4434E
3CED56B0
3D252157
3D061523
3D51F4F5
3D4A06EA
3B0E8717
3DC3C3A4
3DD7396D
BDC7FA1A
BBF058C3
3CD2806B
3D4F9D2C
BC2A5C5F
3B62E614
BDB50870
BD1059EA
BC217820
BC14925E
3D8D7ADD
3CCAD9AE
BDBE6FF8
BE48C693
BCEE1156
3B6B6615
BDA3F706
3DB8D79D
BCD77100
3CE50C5F
3E5081C3
3E395810
3D17279A
3A9854F6
3D57E34C
3D81D756
BAB88FFF
3D197918
3D271CDA
3DA019B1
BD0D24E1
3B7EA73A
BCE4A383
3D2E275B
3D3B773A
BDE0956C
BD961F5C
BD787592
3CEB52CA
3D387AD1
3E426AA9
3D8A747E
BD965FD9
BB11DB5F
3D0C1A8B
3DC1626B
3DEF2F98
3D839714
3DA17D28
BC3F26F2
BBAFF378
3D7810E9
3D81B003
3D9715C6
3C5E0D67
BD33BA77
BD21858C
BD0790B8
3D0B31C2
3DC57A78
3DB376D5
3C58ADAC
3D8019B1
BCA47454
BD367C28
3D3893FB
BC514E3C
3D1F548F
3E0E6AFD
3D868A93
BDE5B963
BDDE2047
BCBF52FC
BDAFB43E
3CF850DF
3D96AAD2
BD298138
3CB47E8D
3D526FA4
3C16ADC1
BD6C6DE7
BC53F9E8
3CDFC19C
3D8FC58B
3BDAE8EF
BC3749AE
3D050BD8
3C1ED401
BD087336
3C6557DE
3C8ECFA7
3D971EB0
3D899956
3C24A490
3CB4E768
BC9233DF
3D084F90
3D0913A5
3C912557
BD50ECB7
3CCF8B59
3C486CEC
BD63992D
3D1B23DD
3D382F51
BD3B2CC7
3C61F3A5
BD2B27CC
BD5C64BB
BCBF5947
3CEE30CB
BD32AAE3
3C516766
3D1B62C7
3D7ED741
BD39C843
BD0CD20B
BDB6A487
3C1BB0CB
BCD2FE3F
BC4DF698
3C15809B
BD3D1783
BD845027
3D65ABC1
3D76427C
3C9A1FD1
BD65D4A6
3D13F39D
3D604E1E
BDBF583A
3C800EAE
BD81ADEB
3B9DB8E3
BD840F24
3D95B1C8
3D96177F
BD34341A
3AB04AB6
3D6031CF
3CEB52CA
BC2A326E
3C7ED634
3D9A708F
BBE5A35D
BA7AB390
3D542C3D
BCCCE810
BD1E29B7
BBBC19F7
3D7A732E
3D4D5305
3D02A66E
BD88398A
BCFB95A3
3CDE0935
3D651B0D
3E0223E2
3D518A01
BD73732A
BDDE15CA
BDEE4E27
BD3E425B
BCB0A915
3CD5475A
BC794424
3DC919F0
3DFC9EED
3CCCF28C
BE12C27A
39DC34CA
BD38E8EA
3A391230
3E21C2E3
3DE3DC48
3BFAC6DB
3D96A50D
3DAE1DEB
3D3E6A33
BD419D24
BD36BC1F
BD572EF1
3DB817B9
3E05729B
3D8261BF
3D94D834
BD32580C
3BC6EE66
3D60F4D8
3C3E1EB4
3A6434F3
3D0A6224
3D2659D1
BB50A3F2
3C408FA8
3DC84BE4
BD0854CE
BD7B18DB
3CF570C5
BC99ED7C
BD362846
BD2F2303
BCF251C2
BCEEF5ED
3CDBF26F
BCF2D1AF
BE456580
BE3800A8
3E6F3238
3E8C169C
3E4501E2
BC7316E3
3C378466
BE43F67F
BE45CBBC
3D12007E
3E231CEB
3D090929
BE0718A8
BD182774
BE638088
BE8075F7
BE33F7CF
BD92799A
BDBF5A53
BCFE4DE4
BD1F97AB
BD390B85
BE6E0F3D
BD94CEC4
BE115619
3D047A18
BCD0D280
BCB6E2EB
BA14B98B
BE121AB5
BD17646B
3C03EA70
BB5F2B74
BD3B54A0
BC335B0C
BD81BD1F
3D54DF8B
BCB3892F
BC6A8544
3D0AB1D5
3D09D495
39FB554B
BD41BEB2
BE274A77
3C3AE89F
BC4E9A2C
BCC22899
3C6ED02D
3BD314E5
BE3249E4
BE4E33F0
3D78E8EA
3E0C3223
3DEE2974
3DA5E13B
BAFFFF29
BD3ACE68
BE77F8CB
BD8D1D8A
3E659210
3E1C169C
BCDF58C1
3D451EB8
3C811B1E
BE228241
BDE8E608
3DD096BC
BCC22EE4
BDEE7818
BCDF0F5A
BCC8D5C7
BD65460B
BE3B938A
BD3E4EF0
BC29CDC4
BD811772
BDA8D2A2
BD2DCE3A
3D166278
BD7164C7
3C0AD9E3
3D86E115
BBF8FE84
3C0E36FA
BC17ABEE
3D07357E
3D38CDA7
BBFC91B6
BCB11E86
3CD054AC
3CF312B2
BCAB862B
BC9ACDE2
BBC66FBB
3D8497FA
3DF01B86
BD9127F6
BC6CE571
BCF58E22
BD82B303
3D35946C
3D26E222
BBB0D6CD
3D891D15
BD05B185
3D3AA476
3D774688
BD8F3908
BD7E596D
BD2DD26B
BC98FA37
BCA37EF6
3E17C1BE
3DBD61F6
3DB7A919
3D93660E
3D96BDB2
3D25CD4F
3C9378EE
3D607D4E
3D910F52
3D362B6B
3BF99228
BCE07810
BE3104D5
3C4B923A
BD3F1E8E
3C2B3EDE
BDAA6B0E
BD3FAB11
BDA99179
BD3F3E03
3AC88DA3
3D0389F8
BCB122B8
3DB48883
3B9B28E6
BC8A6DAD
3C89246C
BD234CA1
3B3516CE
BD28EF78
BD3F36AC
3D5DC400
BCF9F44D
3D7C2870
BD6440F2
3D2CECC8
3D95CB79
3DBDDB98
3C6D84D3
3D0F4949
3D7CAC8E
BDC1333C
3DBA6A44
3D740E5A
3D9AF966
3E32031D
3DCB89D7
BD184F4C
BB8D716D
BCDFB939
3C862D41
3D480A5B
BCA24031
3DC3B70F
BDAC63F1
BD1B60AF
3CFB5F1C
3DA06424
BD7BDCF0
BDCC4C59
BC984A0E
BDB81E8A
BD64CC68
BC4EE9DD
BD230B9E
3D480304
3CCA1273
3CCE5F74
BE0BA1F5
BCE38434
BD135654
3CAB0EA2
3D46B485
3D210F0F
BB48330A
BCE84274
BCF9F234
BC79591D
BBA6CF0C
3D8302B4
3CF69EC3
3D4DB8BB
BD21847F
BD91CD1C
BD8014F9
3D8AA002
3D11A650
3CA53FC0
BD875C4B
BBD9B365
3D4A71DE
BCF2BCB6
BC7776C5
BC9E8E61
3DDB035C
BD15DC40
BDFD1CC1
3BD883BA
BC935FC4
BE1DBF48
BDF91926
BDA9478D
BE0956C1
BE29AAA4
3C2279A8
BD0D5843
BD163348
BE12617C
BDCBC2FC
BD5B9E8C
BC553CDE
3C82278D
3CD89CE5
BD067BE5
3BCFA4EE
3D4958DA
3C92684D
3C8E5E68
BDA75600
BD92DA98
BCA133C2
BD6492BC
3C4E5F74
BDAB356E
BD8A4DB1
BDB64E8B
BC39F55A
3B7CE091
3C5117B5
3D79E6AC
3D4FBDAD
3D2E0E30
3C8B75EA
BD4A1273
BD2C84F9
BC0A364F
BCDEEBB3
3D1A1CAC
3BE33C7B
BCF43A64
BA1F0E4E
BD098F60
3CD592DA
BBDDAB41
3DAABA38
BC8D2C38
BD9F4667
3A887C3B
3D93A798
3D3CAEA7
BD268B1A
3DA20D56
BD6CA8A0
BCF4794F
3D74CA0C
3D28D435
BC275CD1
3DAECBFB
BD3A450B
BDCDE2AC
3C9374BC
BD5E279E
BC37BAED
3D7A311F
BD993A2E
BDA22142
3C88E369
BB25F197
3D11FD59
3BA544C9
3DAA9BD0
3C7E7E20
3C8D1B71
BD88A58B
BDAD538B
BD307182
3C38C32B
BCB62414
BDB1FDDF
3C34A665
BD58EDA2
BC5B6E50
3D5DC50D
3C18D9EC
BBE55631
3D0B9347
BB373308
3CFB9E06
BD8F9F45
BCE80E06
BC2411C3
BD94CE3E
3CF5BA2C
3C70563F
3D0F4A56
BD7E9FAE
3D1B8BAC
3D05F288
3D6047D4
3DCB7910
BD06DF83
3CA2120E
BDAF7F4A
BC2F46AA
3D535654
3D2DEDAF
3CD8B3F6
3BAF3F1D
3BE0D3EB
3C65D9E4
BCC80C74
BD9D3133
BD86EB92
BBE4A383
BCE33CE6
BD17C4E3
3B24B988
3D375B81
3CEC99F2
3CBBFF8B
B9A39297
3A920DB4
BC457E24
BBC11864
3D15F45E
BD113943
BCA339C1
BD369A91
3D27ED85
3DA2363B
BCA5DAF0
BDA4DFCE
3B2E2974
3D4EE5AC
BB97AEDE
3D52B5E5
3DA6583F
BD8C3223
3A206F4C
3DACE91D
3CDED8D3
3E2AFF6D
3D80D0AB
3D8917D7
3BD381F3
BC004EDA
BA03929C
3E00D1B7
3DB3D295
3D3213E4
BDD77857
BB5F9F37
BD6619DB
BCF36263
BD9F6988
BDDCEAF2
BD657109
BCA1EA36
BD469510
BCAFC8B0
BCDA5DAF
3CF11948
BC9C8861
3CB7C782
BDC83FD5
3CFF0670
3BF4F1AF
3D44A516
3C7B1184
BBFA5D29
3CD39757
BD4766C7
BDCDC875
3BFC7CBE
BD158106
3D832442
3D3533F4
BD0240B8
BC951612
BD643ED9
3D176252
3E6562E1
3DA9A459
3CD89EFE
BD1EDBF9
3D49F623
BD941744
3E578034
3D94067D
BC61A826
3D0EF241
3C85FF1E
3C91CB04
BCD04C49
3E366A55
BD0E8FB0
BDC07464
BE0EC41E
BAF9350B
3C92146A
BCADEA89
3D7122B8
BC2A64C3
3DABE271
3C83BE66
3D816F00
BCEADF72
BD1906CD
3BA22E94
3D6AA194
3DC573A8
3D893294
3C39170D
BD14727E
BDB4ED2D
BD0024B3
BD31E3A8
3D30A1BE
BD4A99B7
3B38D9D1
BD3471F8
BDB7D0F2
BC0F3FA4
3CEDE97D
3CC76F2A
BCC8E475
BCE4DA0A
BB9FC95F
B8F60454
3D7008A7
3E567A10
3D9291B8
3DEF9874
BB6B0674
3D19B802
BCFA58F7
3DED4802
3E044D01
3DA16F87
3D85681F
3D9A322B
3CAE147B
BD1C7150
3D18AC9F
BD99EA57
BDE161E5
3D4CDB7B
BCE35E74
3DC80E06
BD78A3B5
BE2240B8
BDA94A2C
BC464BA9
BD372E6A
3D28240B
BC8B0AF6
BC87D912
BDF28B6E
BD90728F
3D4BD87B
3D1E02EB
3BE78763
3D752652
BD917EFE
BD4C7E28
BC2E642C
3E050EFE
3D0E1E71
BD04534C
BD87F2C3
3CED8D37
BDD197A2
BD62C669
BD4713F0
3BD26817
3E0DD591
BD9DF224
BD6E58A3
BD4B4AED
3C60A84C
3D5004FB
BD973648
3A9A4591
3D8F72B4
BD8F2E06
BD7D49D8
3BD4F590
3D0E8A72
3B934847
3D8730C6
3C08A33D
BB661721
BD56D2AA
3D8060FE
3E2663C7
3E0F88B9
3C7A6DF0
BDEEBC41
BC5CBDDC
BDE86D72
BD5613D3
3D07E38F
3D9D53CE
3D33E682
BD9164C7
3D2CC4F0
BD07EAE6
BD50DAE4
3DBDD228
BDEF3F53
BE27B891
BDD3C89F
3DC3E8DE
3D9842B7
3C687097
BC3CA537
BDE8F5C3
BE16E58A
BD378141
BCDEE137
BD294467
BD323897
BD4F355D
BCFEC13C
3C9CB253
3D4622C4
3C27008A
BC554541
BD6A53FC
B78D8A7E
3D7FF9B5
3D441249
BCD4801F
BD875793
BDA774EF
BB33AFC5
3E105A71
3D62B389
BCEED677
BD8D130E
BD95A07B
BDD2599F
3C4297C0
3AB559EA
BD7A99FA
BD3F3494
BE16A401
BC201BFF
BDD6E58A
BDE44524
BD0F6CF0
3D3B6ED6
BD3F865D
BD089C1B
3D832E38
3CCAB607
3D3E4474
3D56FC9C
BDB3A92A
BE2370CE
3CEB5914
3E154C98
3D753932
BC03EBB2
3D756A7B
BDDCF030
3DA4A490
3D0B8AE3
3CBBE447
BDBA38FC
3D591687
3D3A69BE
BD4433D7
3CFE1544
BD2D8D37
BD39F87F
BD42E98A
BDA63737
3D038195
3E57396D
3E5930BE
BB36C44D
3C5B9842
BDC3F035
3DAF9F45
3DE1B5C8
3DC5729B
3BE9B7BF
BD3BD7B2
BCF5F916
BC4AEEA6
BB870974
BC8FD9FD
BD856B44
BD04D984
3CA593A3
3D1434A0
3BB31DCF
BC192931
3D157BC8
BD07442C
BC48C500
3D5ACDE2
3D7D566D
3D4711D8
BB9018E7
3E68B439
3DCFA051
3E17ACC5
BC187619
3CD79075
3DBD82FD
3E28CE70
3E4F0AE5
3D3BA344
3CCF355D
BCB1769B
BD0D6F54
BD3503B8
BDA43DCD
BC977EA2
BD7CFF65
3BE7AD23
BD277D52
3CED5497
BBFA4830
BD252AC7
3D138AC2
BC9DC2F4
BD9E132B
3C8127B3
BD4DBCED
BD95C28F
3D2BBDBE
3D216830
3BA76387
BD856B44
3D244E94
BD56A9C5
BDB67558
3D9C5C57
3CE7D999
3D1832FD
3CAE03B4
BDED42C4
BCA76534
3B7ED12C
BC68101F
3D3C3F81
3CAD3E92
BDB9231C
BD59BE4D
3DB9F01C
3D789B52
3C5666AA
BD48C932
BD8C3654
BE3C13FD
BD380779
3DE2A1B6
3DBBD838
3CB60F1B
BB122F42
BE0D10F5
BE43A53C
3C9A4DF4
BBC9EA9A
BCA5BD94
BD1EB639
BDB8A548
3ABC4596
3D1E1D21
3D45EB31
3D22E2B9
BDA178F7
3CFAA045
3B93E1CA
3D6CD078
3D879B35
3D1219A8
BCC4D445
BD91CFBC
BD797247
3D4C6717
3D173D9F
3DB2EDFE
BCABE271
BCCE8B7E
BD8CE4EB
BCCBB5E1
3E055B03
3C86A4CA
3D904146
BDE38327
3CF11F92
BC573C92
BDC959E6
3AC3D908
3C883FD5
BD01A36E
BD78151A
BC43FC44
3D41F106
3D2455EB
3DDCBBC3
BD3634DB
BDB60631
BC9D0636
3B8378C6
3D635936
3D3255F3
3C1A1E24
BDBB97BB
BDCAE74F
3D37D1FE
3A400EA3
BD8CC576
BDCA5E78
BDE277C4
BC97635E
3CD4280B
3C5E7211
3CD8F4F9
BCED245B
BDC25F20
BDA3F3E0
3C288F00
3D51569F
BB324562
BDC3D2D8
BD99CA5C
BC66E222
3DD39970
3DE0EE8D
BCED1394
BDE08073
BB48E333
BCE5CD4F
3BCFEDE9
BD177EA2
BDC7EBF2
BD09A672
BDB10FD8
BBDCB146
BD04A0E4
BDA52D66
BC6F8488
BCC7F562
BE07D806
BDDFF823
3D28BE2F
BB5A610A
3C8B7E4E
BC45C140
BDC0A633
BE4F1FDE
BD40E172
3DB635E7
3DE4AE00
3D8BC6A8
3D380347
BE183CF3
BCEA50D7
3CFCFA27
3CF125DD
3CA3DF6E
3D18255B
3CE31727
3D6A4CA5
3CC560C8
BCE9E1B1
BC9BA3CA
3C51FA33
3D54D50F
3E2F3CB4
3D16A37B
BC8196D9
BC725A25
3C7E1544
BB21CB97
BD39AD00
3D3A7FC3
BCABBA99
BD59E519
BCEB441C
BC899179
3DE6D480
3E0EBEE0
3E07C30D
3DADF15A
3DA732DF
3C219008
BD57928E
BDFD273D
3D2B4D8C
3DF9628D
3E009FE8
3B5596A0
BC92A51E
BD25A89C
BD2106AB
BD38B04B
3DBAF188
BB42F32F
BD76C69B
3BFBB518
BCDD8516
3D8D9275
3DB2EA53
3DA5F17C
BB4FEB65
BD714446
B98825A9
3D383CF3
BCD0E347
3D523C43
3D9E84F1
3D14A5DF
BC62089E
3D2A11ED
BB43D75B
3B36B02B
3DBA3FCD
3E4F7660
3DF89B52
3D9B5FA2
3D42730C
BC0C8473
BD7821AF
BD98969A
3DB7A1C2
3DE96E59
3CB6A61A
BC8DEB10
3D03DBC2
3DA7ABFC
3E169446
3D73A259
3E02BE8C
3D2F86A1
3D28FC0D
BD027525
BCD34374
BDD714BA
BC6F34D7
3E39389B
3D1E0A42
BC638A7E
BD3AFEA4
BD25A145
3DA6E654
3DC8B114
3DE6BA49
BD9AF640
BDACDAF5
BC608AF0
3DC39D5E
3E4A57A8
3DEB3BB8
3D296F65
BDE132B5
BAA7B4E5
3D7D7C2D
3D998A65
3DC768E0
3DD8793E
3D845CBC
BD98FB44
3D4C48AE
3D2528AE
3DCFBFC6
3C5CF030
3D83CEA7
BD7FDE72
BCFCF5F5
BDB0DE8F
BD9F8E3B
BDFC408E
BDD984A1
3D9C13FD
BCB53501
BDA305D9
BD1AA2E4
BDC8FEAC
BE0826AB
BDDA1230
3C413B9F
BD17FB6A
BDB4C22F
BD715400
3D1DC726
3CE39714
3D709A67
3D29E1B1
BBAC1674
3C9D29DC
3E50AE53
3D4ACD18
3CED9BE5
3D5611BA
3DEB6AE8
3D84CAD5
BCABE6A3
3D4C9108
3BCE6CE0
3C8A88F0
3C5F43C8
BDD36A40
BD98DEF4
BDC158FB
BC3D8BE7
3B912480
3D896F65
3DF6262D
3D6D03DA
3D9A0C6B
BAFE4799
BCF26D05
3DAEC8D6
3DB58FB4
3CC9F0E5
BC6C5B08
BC977EA2
BD1884C7
BDADEFC8
3C196455
3D0538EF
BE004C06
3CC4CBE2
BD194AF5
BA4152C6
BD8D83C7
B9F1302E
BCFCE52E
BDA4F11B
3DA13F4B
BCEF6513
BD11B824
3E0D4563
3D42BB66
BD1F0A1C
BDB0FE04
3D9059EA
3DAB851F
3D64A9CE
3CA17B0F
3E0317AD
3D9F5F91
3DA2F944
BCD0F1F5
BCB4F3FE
BD667621
3D2D3C79
BCCA6A87
3C628AA4
3CCE8102
BCC03DDE
BE099AE9
BDD7D178
3CEA4010
3CB6E936
BC46DE76
3D35B2D5
BC93AF75
3D0FE79F
3D464990
3D09D495
BD09E55C
3DCBD018
BD9C7B46
BD444AE8
BBB1798A
3DA82E88
BC046F66
BDC76B7F
3C98BB4D
BD3033A4
3E43D70A
3E34ACB0
3DB255F3
3DA45027
3C084D41
3DB06898
3DDF0C35
3E8302B4
3CAAB25B
BD8853C1
3D9CE0FC
3C6FA616
3CE88DF3
391BC167
3C7687B1
3D085D31
3D616D6E
3CEA91DA
BD08FB87
BD15B78D
BC80C954
BBA9B068
BDCF7660
3C822FF1
3CCECE9A
BD0A4D2B
BD1513F9
3D4C3A00
3E210386
BCABA5A0
3CE80BED
3D03F4ED
3D606C87
3CD88A05
3DAA4A06
3D0EE8D1
3D296702
BD6CF638
BD0BCADA
3D14EE39
3E0CBFB1
3CE3FDD6
BCF4666F
BCC21E1D
3CEDEB96
BD81C1D7
BD4957CD
BCD93A2E
B9E52284
3DCB5350
BB6AE338
BD9630A9
3CCEC850
B96758EA
BCF9830E
BDD595FF
BD7F1A5D
3D0D21BC
BCA543F2
3D52A844
3CDEF630
3D4D759F
3DC51B93
3D3DE1E3
3CF6837F
3D1AB8E9
3D99C066
3DA019B1
3D0C8BCA
3DC9BC77
3D061F9F
3D00A4A0
3DF09E99
3D7621FB
BCBE0158
BD2161E5
BC5F6124
BCCCE1C6
BD5EFFA0
BC8AA64C
BD2D2999
3D990753
3CB295EA
3D921145
3D77FCFC
3E1C3611
3DACD0FF
3DA41462
BCA4BDBA
BC70E90C
3D060675
BBEACE40
BC88B114
3CE1309C
BCD25CC4
3D716F44
BB6978D5
3BAF195E
3D4B1034
3CABFFCE
3CAA411C
BD186A90
BD1DDD2B
BD9226C4
BDD3D85A
3D33A9B0
3D0B5CC0
3D250A46
3CC6E8F3
3DB2A737
BD016DF4
3B9260C0
3DAFCEFB
3D33397E
3DB10774
3C6603D5
BBC1D522
3D5E7968
3DC3D039
3DDEDD05
3D045AA3
3C849A99
BD042203
3CB9CF9A
BD3C5261
3CF0691F
3CF55150
3B81684A
BD82A993
BBCCD2AC
3D97720D
3D9FFF7A
3D4623D1
3D2B6BF4
3D40B780
3D83B1D1
3C41F85D
3B9B77C0
3D535979
3DE4F228
BD621533
BD04912A
BD075C4B
BD2221C9
BD2FBB0E
3C85CCC9
BDAAAE29
BCDD095B
BC7B224B
BCEC6584
BD45C140
3AC75C4B
BD93DFB1
3D093FAF
3D30EB25
BC8F66A5
BC6ACC92
3D99817C
3D51CB04
3C929CBB
3C3C382A
3DEE2EB2
3D680496
3D91971C
3D89680E
3CA495E1
3D583C6D
3CEC0D6F
BD4667F9
BC93FD0D
BD7417CA
3D19029B
3D707D0B
BC900A39
3BFD3621
BCD332AD
BD4431BE
BE16872B
3D9B1F25
3D0854CE
3D3570C5
3AFEAC43
3C88CC57
BD4883FD
3D0AB4FA
3D521DDA
3D42656B
BE1ACEEE
BE8747D8
BD186A90
3CED3D86
3CC0B567
BD98F4F9
3D228ED6
BE56B65B
BE04D2B3
3BFA9F6E
BCC72C0E
3CDB3BFB
BD635C5B
3CB0AB2E
BE1EF9DB
BD9E1D21
BD87DF5D
BC1142B3
3D1AA609
BD04A622
BD2A0989
BE239FFD
BDF588E3
BDB3F962
BDBBCC29
BD77707A
3D06CB96
3D7BBF94
BD73F855
BDE67B5F
BDB72D5E
BD17D391
BDBEDE98
3C676428
3D0F9D2C
BC6F3D3A
3C096356
BCB3FA6E
BCEA1405
BC1C22E1
3CB16A05
3D38A19D
BC170494
3CD44FE3
3D6644D8
3D23FCCA
3DE21427
3DD042D9
3C5A1A93
BD8DE54B
BE88FB01
BCE84CF0
3D3EAA2A
3D0CB4AF
3AA02829
3D37CCC0
BD8B4070
BDD729B3
BDB6DB0E
BBB3B9D6
BD87839D
BD01A47B
3D326070
3D05FAEC
BDB3AEEF
BD998AEC
BD24EAD1
BA37589C
3C1DDDCC
39C074A5
BD554435
BE6BE0DF
BE2855DA
BB15D412
BC82B628
BCEFB8F5
3D47A5B1
BC9E7FB2
BD6DC3BD
BC82E87D
3C53C361
BDD3A3EC
BCB6BB13
3DB002E2
3DB89F84
BD281BA8
BDD96A6A
BCD48883
BDA7C958
BC957ABC
3C59988D
BD225743
3D0014F9
3D4B74DE
BDD95AAF
BCAED99D
BB12BDDD
3C83F0BB
3D2F9980
3D68D435
3D46D0D5
BCE84CF0
BC0F9E03
3C11C814
3AC494F0
BCC3504C
3C9AAE6D
BB342D9A
3B5C85A7
BC7C9364
3C91793A
3CE25E9A
3B341978
3D1E0B4E
BC0C5E48
3CB33765
BCA5614E
3C2C1D2A
BA0D3E42
BB6D7D46
3C343526
BD30813D
BCACCD53
3D853D21
3DBFA4C6
BD21CDE6
BD577D95
BD5C9603
BD18AB93
3C71F14A
3CA4A6A8
BC7A0946
BC8F6CF0
3C8F4949
3CE5796C
BC470436
BC030EA8
BD12BC30
3D4DA3C2
BD34F50A
3CFAC3EB
BD608D09
3D018612
3AA170FE
BC8563ED
BCB890D6
3C15A07B
3C68C048
3C474752
BC82B1F7
3D132618
3CEC7EAE
BBA776D2
BD4AF4F1
3BEC3DAB
BD3C08FA
BD3CCC03
BD394A6F
BC04AE50
3C3BBE88
BD0346DC
BB179E17
3CFC4C16
BD449668
BD193A2E
3CFFF36B
3CABB44E
3CA68D33
BB64572D
3CDAD96A
BD69A4DF
BB32E169
BC946C33
3BF0E17F
BC81259A
3CE9A6F8
BCF72713
3D755582
BC17693E
BD3BF834
BCA95853
BD9F0670
3B489B0F
3D0EDB2F
3D63E6C5
3B87E7C0
3DB2862F
3C9715C6
B9AF2B7C
BC9ED9E0
BB824B9F
BC54CB9F
BCF3E682
BBF89EE3
BC4AF2D8
3C08EB61
3D42C5E3
BBD5E4A4
BCC6E8F3
3D3825E1
3C9A4378
3D312A0F
3D23F898
BC6004B8
BD48A372
3C80A394
3D7DD441
3DF19503
3D949625
3CC0CC79
3D98A655
3D3AE9AB
3D08BC9D
3C02BC73
BD138045
3B5C1F50
BCA7F5E8
3D451117
BD1D0E99
3CA6A012
3CF3EAB3
BC7737DA
BD5C39BD
BD1D084F
3CFCB70B
3C61932D
3BB7C1A3
3CDF3733
3D408B76
BD426AA9
3D0768E0
3C6379B7
3D296702
3D8E92D5
3D456712
3CBE0BD4
BD4297C0
BD15E9E2
3C54306E
B79643E0
3CA832BA
3D78E7DE
3CAC53B1
BC301861
BC9847F5
BC732379
B9F4A1FE
BC5F3B64
3C714984
BC573C92
3C367C28
BD267946
BB5C3D83
3D135979
BD4CE2D2
BD3621FB
3C3A4D6E
3C808851
3A2A1C49
BC77D73D
3D1578A3
3CF48C2E
BC2C929B
3BC5C140
BCAD080B
BCF1886E
3D292924
3D6F7F4A
3C7C9796
BCDEFC7A
3D89435B
3BD07A00
BB9F3AC3
BAB64170
BD0EC743
3C71800A
BD857D9E
3D27D242
3C8E9920
3D1A0F0A
BD4A16A5
BCC319C6
BD350E34
3C875925
3BAE2E7C
BC741F21
3CF35E31
3D4BB6ED
BD52FB1A
BC28D21C
BC403361
BD423422
3C06EB41
3CAFD545
3D28AD69
BC101F9D
BA080B7D
3D7544BB
BC71E4B4
BD977FAE
BD1EECC0
3CE429E1
3C6A8DA8
3CB9EADD
3D3CD35B
BD5667B6
BBAC8E69
BC1CA4E7
BD75232D
BC19497D
3C0BB89B
BD275254
BCCF54D2
BC0F5939
BB8CB301
BC5E54B5
BCBBFB59
3B9519D8
BD059642
BC93E814
BB4F4DB1
BD1C22AB
BD3AA151
3CE10492
3C10B2D6
3C40F451
BC3C01A3
BBD7FCAC
BD6A593A
BD5EE350
3C823422
3D117C5F
3A1F0EF9
3C5A9C99
BBBCC6C5
BCAE31D7
BC71F14A
3D381A58
BC2F3E47
BD1B78CD
BBFD6444
3A771CD7
BCEF73C1
3CE19978
BCA1858C
BB044722
BCBFBBD8
BB88C1DB
3C9EF523
BD035AC9
BCA79357
3CBEDB73
BC8A4A06
BB8C550D
BCD9CCFB
3D0B0AF6
BC943E10
3C3A7760
3D9D798E
3CF3C0C2
BD2E05CD
BB48FC5E
3D324207
3D001B43
3D72CD7D
3C7E9318
BCC4EF89
3CF570C5
3D510A13
3CA9973E
3D090A35
BD082BE9
3CA6B724
3CFB41C0
BD37FF15
3C0C8B29
3C2FC47E
BCFF583A
3CC1A262
3D8330D7
3D866C2B
3C2AB8A6
3D26E86C
BC8D8234
3D10CA1D
BD2B3893
BD67E521
BBF23A45
BC7CE747
BD19D66B
3D1AB6D0
BBD81931
3CCA8E2E
BD66809D
3D45BF27
3CB78AB1
3D5EFC7A
3C986983
BAD2F5DC
BDDF1173
3CABFFCE
3C865300
BC5CE7CD
BD9542A2
BD29D51B
BCD61D43
BD4EA8DA
3C16BAC2
BD2E6320
3C9AB6D0
BD0E7CD0
3B39FDBD
3CB1DD5D
BD8C0F88
BDA1882B
3C9C7582
3C9DC726
BC8FDE2F
BC9C304D
3D0B33DB
BC66601C
BD44C272
3D6BC515
3CA2A6F4
BCA949A5
BCA65F0F
BB9915E6
3BCE1750
BC98B934
3D139A7C
3D8E6EA8
3D46F8AD
BBA564A9
3D3D07C8
BD1D7FD8
3D03504C
BDDFA440
3D03BC4D
3CC98809
BCBE6C4C
BCCEA6C2
BB083772
3D96B873
BB25B88C
3CB43D8A
3CCC8366
3CC5CBBC
3D00E9D5
BD88027E
BD97F280
3CAC2DF1
3C297E13
BD210ADD
3C977EA2
BD5F7E80
BC3606B8
3D801605
3D48B439
BC6CF206
BC43547E
3C08893B
BCC84B5E
3CCB8E08
3C4C100E
BD628DCA
BD46DD6A
BD2C7000
3D38A4C2
3CBBBC6F
BC5FD695
3CFD3B2A
BC128EE3
BC2317C8
BC62A3CF
BD2F3C2E
3CCD37C1
BD2C81D4
BCD425F2
3D927BB3
3C33AABD
3CEB1E5C
3C97CC3A
3CAAD602
BD874214
BE02C12B
BE0862F6
BE766278
BDE685DB
3CBE9A70
3D7AB431
3E1C4B0A
3E03EEA2
BD807AAF
BD7A13C2
BE14538F
BBAB133F
BBBABD00
3D6E74F3
3D8F9F45
3CEE88DF
BA36E1D4
BD065519
3E395AAF
3D2B7458
BDC32C1F
BCE175D1
3DCC857F
BD1F9AD0
BDC95FAB
3D2351DF
3C455864
BDF2CA58
BE2B8CFC
BD2631F9
3DAC5868
3C2F533F
3C02C9DF
3C041EDE
BC179CD5
BDC6EDAB
BC2A8A83
BDE31A4C
BCA452C6
3D13E3E3
3BC9B91C
3D8E075F
3CED9DFE
3D2AD4F6
BBF4D0F8
3BA95E33
BC2C0C63
3D03F5F9
BD65247D
BDC2A0A9
BDE6F933
BD9D10B2
BDD782D4
BD886CEC
BC48F323
3D75E0F8
3C518D26
BD7163BB
3C24A8C1
3DBEF9DB
3E16CDF2
3D5FE868
BD046845
3CB0AD47
3C884A51
BCDCCEA3
3D88D9F9
3E4EBC41
3D9FF152
BD84D22D
BD7B1E19
BB87DA54
BD9A1230
BDC77D52
3DCB588E
B99B4CA2
BDDD97F6
BE1F38C5
3BECDDE4
BCDA682B
BDC9784F
BDA7B353
3DBB4D49
3D09B952
3CF00CD8
3D716B12
3D565908
3C9D1F60
BD399D45
3D8FAB54
3D8C625F
3E00D456
3E0C17EC
3DF02603
3E45B185
3DCE50C6
3DA37931
3D5D1C3B
3DE108C4
3D2C710D
3D219546
BB5F33D8
3C897C81
3D3F5B60
3DBB2EE0
BCC68017
BC7F4342
3DE4C2F8
3EA0624E
3E221EA3
39AF2CD4
3CF4CF4A
BDC80171
BD89F16B
BCDBE3C1
3E1E670E
3E4FFC11
3C91C6D2
BD474214
38D2B36C
3E278961
BE2ED677
BE1273D6
3D3BD7B2
3AFFAB46
3DB50225
3CE31D71
3E2F12C2
3D8A0F4D
BDB15726
3DA86488
3DB954EB
3D3C0B13
3D8594AF
3E639D5E
3E854C98
3E06F3F5
3E030A91
3DCC1FC9
3DF30404
3D880496
3E25AC47
3E73EFF2
3E14562E
3DFD75E2
3D93A1D3
BD511383
3C0BE653
BCF40810
BC2C2DF1
BDC0C0F0
3DCEAF25
3D2FA93B
3DD35547
3DC976BC
BCC430B1
3D2A26E5
3B07980F
3D87FB26
3D9CA6CA
3DC3AD9F
3E221427
3C957CD4
3DA00A7C
3DA0A201
3E57D6B6
3C08567B
BC52E515
3D9A02FB
3DA618CE
3CFFBACB
3DA55001
3D711B61
3D16ADF7
BD6D9CF1
BDA2339C
BAD51216
3D47A7CA
3D827F1B
3CBF811F
3E0C9082
3D93EAB3
BC8EA39C
BD1EE137
BD329C34
BD886F8B
3C91C8EB
3DD76DDB
3D929FE0
3DA75361
3D9F548F
BD176577
BC496CC6
3DF4E65C
3DDE54B5
3DCF56EB
BDAFE47A
BD14AD36
3DDA9004
3D46290F
3DA9C12F
3CF2C519
BD123B36
3DEFBD27
BD611BA4
BDB0BC7B
3BE7F470
3D372B45
3D869CED
BB75D504
3DE2680A
3D936502
3C9E55C1
3CB024F6
3C987831
3DB7707A
3B95FD2D
BC90795F
3D7F498C
BCA0A30E
BCB0B392
3BF37909
3D8C54BD
BCBC5586
BD90A0B2
BCD783E0
3BD779CF
3C5594F2
3CDBD513
3DBCC63F
3D156C0D
BD5CA8E3
3CA734F8
B9CDAD9D
BD0666ED
3DD1244A
3D2DA661
3D90928A
3D11B4FE
3D112663
3D2A24CC
3DCBB6ED
3D8A233A
3D8EB789
BDFE8BC1
BD64DA0A
BD1BC233
BDE8C155
BD79C0EC
BD056C51
3D7C3C5C
3E032767
3D936588
BCC230FD
3D84A59C
3D8DCDB3
3E1A1A0D
3DB04BC2
3D9D3D43
3C89118C
3D1DB76B
BCC38B05
3CD39757
3E336502
BC16B2CA
BD0EC850
BD6616B5
BCF41AEF
BD27EF9E
3C4E4A7B
3D9DFB94
3D3AAFFF
BD562BF1
BDFE9100
BABEDA9C
3B9B639E
BD6B3FEA
BD1CE28F
3DBE9425
BBB63D3E
3CDF351A
3D107315
3D063CFB
BB92F53B
BDB66A55
3DDDA273
3E17D417
3D985165
3E2AE7D5
3E0F7660
3E152546
3E0F9B13
3DC98F60
3DE8E0CA
BDBDDD2B
BC6A8976
3DBE6794
3C21EB0C
3DF81840
3DC49907
3C8A1166
BE15B036
BD515161
3C70BF1A
3CDC50CE
3E08B19A
3DA7FBAD
BE6A18BD
BDA84BE4
BE122FAD
BCA3BFF9
BD961C37
3D54F15E
3DAF3882
BE5BF1E9
BD844524
BCE2EF4E
BD069835
BD6FB5D0
3D7D694D
3D44BC27
BDEC3C9F
BD59567E
3DD8201D
3D53BAFE
3D0B34E7
BD3C8C0D
3D20B4E1
BC4F2064
BD5C67E0
3E1A1F4B
3DD48A9C
3D846BF0
3DDF9485
3D9AECD0
3CBAA151
3D8E1D65
3C5594F2
3D02602D
3DA3B2DD
3DE5D399
3D961134
3E17EE4E
3C8E581D
BE35F99C
BC8D130E
3D09BA5E
BD42AED1
3E0AA8EB
3C49081C
BE279BBB
BDF70CDD
BE23E426
BCEE5040
BC54562E
3DD25EDD
BE808AF0
BE60BA1F
BE053B8E
BD129457
BC38AA00
BD8D5C74
3DD6A162
BE13FFAC
BD8FC04D
3CFFED20
BD3D5348
3D01A36E
BD1E0C5B
3D0A7504
3D44BD34
BCCEB13E
BD91A9FC
BD1D1D47
3D9FD71B
3D78B264
3DC4FC1E
3DB76923
3E0DEA89
3DA3B795
3DC3EFAE
3CBBC904
3DFDD441
3D8174C5
3DEFA82F
3DDBC01A
3D673605
3E1273D6
3D832B99
3DE52BD4
3C04D6FF
3DCEA9E7
3DCAAF36
BBF0CF0B
BC752FC2
BE036113
3DB2ACFB
3AE5DC68
3B61BECC
3933DCBC
BC2D46F6
BCD0E347
BC257647
BDC981BF
3D296F65
3BB68639
BD774ABA
3DAB2208
3D0AE968
BD30E6F3
BE1F77AF
3CCE831B
BDE277C4
BE381840
BD0F355D
3BA55666
3D0C857F
BC328523
BCD6E265
BDCB15F9
3D1CA298
3D033722
BBDF5566
BDDDBCA9
3BBC4C4C
3D5B66F9
3C911F0C
3D1E9079
BC987619
3C76DB94
BD0BCDFF
BD7709B7
3CE95B79
BD0A9EF5
3B3BF006
3C63A7DB
BC6E1BD2
BD2351DF
BBA4DD9A
3D18AB93
3D8157EF
3DD628CC
3D4CF28C
BCBDB5D9
BDCC3EB8
BD32C1F4
3D93B42D
3D01A587
3DE3BCD3
3DC4C943
BDBFFDE7
BD83A42F
BDFFE08B
3DF0D845
3DC6C658
BCFE260B
BCA79DD4
BD17F51F
3D94ECA7
BD3C72E2
3C597B31
BDC95209
BDAC8605
3DEDD053
3DC23183
BD144BB2
BDA387DF
BCE410B6
BD56616B
3D81450F
3B15CD5C
BC8CB07D
BD3CC6C5
3D936C59
3D04AF92
BBC87C05
3D0E6299
3CBC126A
BCE2E2B9
BD4FE586
3C947F13
3D08B978
3C94317B
3CA9DC72
3D9BF50E
3C91DDE3
3D341073
BC30813D
BCD07E9E
3CADD7AA
3C6C95C0
BD500E6B
BD09C5E7
BD611EC9
3C279BBB
3CABDC27
3DB3DC8C
3D946131
BD9B90EB
BE05A709
BE64F228
BD93EF6B
BD2ECD08
BBBB21AA
BDA6EB0B
BD72239E
BD0562E1
BE066128
BBAA143B
BD656367
3BD750B4
3D83D252
3E81C433
3E121FF3
3DE363B2
3D715B57
BD2799A2
BC0B4253
3D945847
BD5CAAFC
BC120F62
BD502689
3D13A605
3D821FB0
3CD5970B
BCED17C6
BDCADC4D
BE22656B
BDC66341
BBB9EEA4
3CF1BCDC
BCFAA8A8
BC214991
3DD3CDDD
3DBE5D18
BBAF83E7
BBA75BFA
3BA9C561
3DD40789
3DB17614
3D90C0AD
BD199CBF
BD2DA76E
BD9BB060
BC9ECD4B
3D3B6241
3DBD9125
3D0E7DDD
BC91DFFC
3C3D512F
BD0F3A9B
3CE733EC
BC8038A0
BCFAD29A
3DA21533
3DD68C69
3D932D6F
BDEC27A6
BC32C40D
BCB18117
BD62A3CF
3C94B7B3
3CEA0BA2
3CED7A57
3D3A6BD7
BCE33051
BDCC942D
BD187400
3D100714
3CFB3743
BC9B23DD
3BFB0ACE
BD0B8BF0
BDAD2CBF
3C384DBA
3B965110
BCB122B8
BAC7C0F4
BD6FDEB5
3CED86EC
BC0768AA
BD41040C
3CC3D252
BC6AE5BD
BBCF62A9
BCC486AD
3BBEBC69
3D37B6BB
3E149279
3D9B9C73
BC14A615
BCA7AE9B
3C24B125
3BB69553
BD01BFBE
BBF713C8
3C8BFC22
BCF6F8F0
BC6FA1E4
BCF2B66B
3C7F0889
3DAC868C
3D873BC9
3C6B8D82
3D180E49
3D697AEE
3D1AA1D7
3D85F288
BC2D7519
BD31E5C1
BD5CA4B1
3D620AB7
3CE657B8
BCEE30CB
BD908FEB
BC9D27C4
3D2E34FC
3DCEB463
BD28FE26
BD92031D
BCC87981
3B3D29C2
BAAAC612
B98B4192
3BFF964E
BCA8B2A7
BDADE7EA
BDA1C609
BD1A32B1
BC9B5200
BD21101B
BA1DBE16
BD074A77
B8AF4D0A
BBDC64F0
BD44295A
3D00DD40
3E25460B
3D2AA3AD
BD1D041D
BD11782D
BD6F62FA
3CE1650A
3DAC3548
3E15C7CE
3E1D3997
BC1A2F56
BD82AB26
BD810F95
3D70025C
3C4692F7
BC7AC1D3
BC150911
3CF6837F
3D349ADD
BD404A73
3D055C96
BD9179C0
BDF1C433
3DA58AB9
3DE18698
3C8B2208
BCD612C7
BCE0B2C8
BCFB9BED
3DB5D463
3DC39E6B
3C82F944
BD8366D8
BCD1FC4C
3C6264E5
3BDBA329
3D350A03
3C4C9EAA
BC9F6230
BDB8090B
3D502795
3D426352
3D21B9FA
BBE6B75A
3D62120E
3D942CC3
3DA3BC4D
BCA4228A
3CEAB9B2
3D50BD88
BCE02646
3C213FEC
BD7BEFD0
3D06E6DA
BD0BEF8D
3B6107ED
BCE8C261
BE3E963E
BE8833C6
BE235BD5
3D19EA57
BC87789A
BD6FA0D7
BE202752
BE0CC78F
BDCC9B84
BD220DDC
3DBB7E0B
BDBC06E2
3C507C85
3D12274A
3CBF3387
BBCFF64D
BCB9A7C1
3D9293D1
3CB8B8AE
3D82B841
3DECEEE1
3DA221C9
BD36177F
3CD56B01
BDD081C3
BD2E264E
BC75DFEC
3DAF8D71
3BD83185
3D4D62BF
BB99A558
BBCCA2DB
BBC70AEC
BCF70BD0
3D316B12
BDD4024B
BCCC3E32
BC5759EF
BD2FAE79
3C59231C
3D3D30AD
3C30DD83
BC7965B2
3E27BB30
3CE4DE3C
BCFC371E
BD107747
BD359BC3
BD8733EC
BE654DE8
BE805144
BDB6B442
BD1055B9
BD733A8A
BD0DD1E5
BDCED3D8
BD90BD01
BD96F21F
3B0B70E2
3CBD188F
3D2744B3
BCEF1349
3DA9FE00
3DEB7564
BD5E2CDC
3DF64064
BB9DF7CD
BD2BCE85
3D8007DD
3E4CCF6C
3E19EADD
3E09A805
3C4EC41E
3C762739
BD62A800
BB0FCE3F
3D47075B
BD476D11
BD986E3B
BD3A6480
BD529BAE
BDE516DB
BB0EDCA7
BC709D8C
BD5759EF
BD56ECE1
BCBF39D2
BC5C8755
BC70AA22
3D29CA9F
3DC6F263
3DB0B84A
3DDD6E05
3C872086
3A881436
3E2E50C6
3B6FF774
BC9C304D
BD2F038E
3CAE924F
3DA8A58B
3D18D79D
3D123B36
3A1095E5
BADD2865
3D4AF5FD
BE0656AC
BBB832E2
3DFD9A95
BDF9A6B5
BD4ED2CC
3D40D3D0
3B95F3F3
BDB85511
BC84C6A4
3C8F10AA
3D27C17B
3CA20792
3DFCC3A0
3D8914B1
3A2EE5B1
BDBE4C51
BC7416BE
3D0B2E9D
3D960631
3E33BB84
3E164303
BD91159C
BC9CD5FA
BB286006
3D590F30
3B62CCE9
BC8281BA
BBC64925
BC6835DF
BDD81062
BD92C493
BD505D10
3C98D478
3CC1919B
3DBDFE33
3DAF2E06
3DB10668
3D1AFE1E
BC630447
3C9A3098
3B5CF2B5
3D0ADDDF
3DC2E5DE
BD14280B
BD77EC35
BD5AA92E
3CF342EE
3DB16D2B
3CDB24EA
BCDD9E41
3BDCAC3E
BB299B6F
3DA56580
BC2B0C89
BCFFB69A
BC23A44A
3B50C8DB
3D74D7AE
3D8BFE3B
3C6AC860
3BA7B5BC
3D46E9FF
3DD21038
BB88094E
3DCB85A5
3D6773E2
3D93C361
3D0AC29C
3C3B40B3
3D93DAF9
3C144C53
3C806D0D
3CC74FB5
3B99FD6D
BD033B54
BD646280
3C0359BC
BDB30CED
BE0EBEE0
3A4BA2D6
3D870FBF
3B001712
BCD3825E
3B990E59
3D6FF8EC
3D245F5B
3D1379FB
3D7BF834
3D64B663
392CBB5F
3D805B3A
3D4BF3BF
BE01C2E3
BE84039B
3CA91B82
3D3E7C07
BCFAC1D3
3D1F2991
3E00F3CB
BD9E3971
BE4F8B59
3D21C68F
3D2DFA44
BD66D04E
3DAFE154
BCE1693C
3D912C28
3DB9BCBA
3D02A023
3CDC50CE
3C40F883
3D08A58B
BDAFDF3B
BC62C12B
3D9DEC5F
3D67B3D9
BC1255D8
BD84D120
BCAA6091
BE723F68
BE30B0F2
3D1DD096
3CAAAE29
BD3A42F2
BD1B5526
BD9694CD
BDD25461
BD1907D9
3CD1BB49
3D23A7DB
3D4B8AE3
3D90A351
3D960D88
3D31172F
3DD450F0
3CD69F49
3D0549B6
BD51372A
BCB9FDBD
3D1B445F
3DD6CB53
3C824702
3D39BCBA
3D856FFC
3D1DCB58
BD32E8C0
BCB57A35
3D64DD2F
3D9B17CE
3E073040
BD3B2EE0
3CAD080B
BD3E5FB7
3C6C8D5C
BD98444A
BD25E354
3DB11CF3
3D4C49BA
3D12FF4C
3CF7835A
3D8C710D
BD1FB507
3CE89870
BD17AEDE
B973FE3F
3BEADC82
3DA73A36
3DCAE85C
3D47DB2B
3DA577D9
3DA95183
3CFFB69A
BCE0114D
3C72B23A
3DBF5409
3DE6A012
3D15C209
3B412275
BC1483B0
3D96B2AF
3DE30FD0
3E2CC78F
3DA641B3
3D59157B
BCDD0D8D
3CFC6973
3DC41787
3ABCA6E5
BBA9A657
3CC0053E
3C8917D7
BD8EC072
3CF9B563
3D31DA38
3D1C1D6D
BD07E282
3D166384
BD220CD0
BC491080
3D687097
BD13AB43
3B618ACA
3CCBAD7D
BC6846A6
BD9904B4
3D826784
3DD71F36
BD574B40
BCE96C40
3DDF4B1F
3CABFB9C
3B59E9EC
BD6249A1
3D6C18F8
BBD6A66A
3C0A724A
3D5627BF
BCAA454E
3DC6BACF
BD9A1449
3C68F29D
3B94A899
BD904EE8
3CAEE632
BD29E7FB
BD2AD4F6
3D281883
3C5A597D
3C8BE729
3D3D75E2
3E0D6CB5
3E0B7026
3E17B203
3D898BB5
3D9CA106
BD75B4EE
BC7A54C5
3D25204B
3E166517
3D07442C
BD85521A
BDAE1F7D
BBD00714
3D11E42E
B8FC3977
3D3A97E1
BD2CD6C3
BCC167A9
3D28EA3A
3C135E16
BD0A4D2B
BCBB4B30
3DBB96AF
BD017119
BC2B4B73
BD0BBC2C
3CAE4F33
3CABE6A3
3E3CD5FA
3D953F7D
3DD4D940
3B47F852
3D6BEBE1
BCD712A1
3BB2EB7A
3D7F10ED
3D391E64
3DA746CC
3DB7FCFC
BAB3F997
BAF850DF
BE072086
BD820FF5
BDC9DA59
BD6071C5
3CBCDBBE
3D6FC47E
3C67A744
3D6D6020
BB4530F7
BD083233
3D5DD8F9
BC341398
BB62B8C7
BB85312D
3CA8F5C3
BE1288CE
BE7BA5E3
BE67BDCF
BD85F8D3
3D87620F
3DA477FF
3E2A0E41
BD9D4E90
BDA7D1BB
BCE2EF4E
3DCA3DF7
3DACC815
3C57B203
3E20DED3
3D16440F
3D89ECB3
BD23608D
3DCB8412
3DFECFEA
3D0B1466
3E1F876A
3D571C11
3B3926FE
3DF3DAF9
3C3DE82D
3D03DEE8
3D346AA1
39A4DA15
BDB7963A
BDD66278
BDA2A887
BD6A8EB4
BC793BC1
3DA12275
BDCFDF3B
BDB15486
BCDECA25
BDB9F6EC
BD8644D8
3CED43D0
3CB8E8EA
3DC1C8A8
3D03382E
3D7928E1
3C191072
3CEC679D
3BAD1C2D
3DBCA85D
3DD234EC
BDA0346E
BE92D4D4
BDF928E1
BDB77F28
BCE8DB8C
3DA03600
3E25F84D
3D849FD8
BD94DE7F
BDA4816F
BC839EF1
3D824463
3DBE2F7B
3E26CCA3
3C982CB2
3D5C0768
BD7B6BB1
3D1BDD76
3DE49907
3D737111
3CA2749F
3C9C193B
3DDE646F
BD1AAC54
3DCFCA43
3D44C6A4
3DB39325
BDFB1AF4
BE730E80
BD795E5B
3D9E553B
BD9B328B
3D4DA6E7
3C7DE2EF
BE027FA2
BE60B4E1
BD888C61
BDADF7A5
BD55043E
BD1334C6
BCBFB58D
BC0EB895
BC59A954
B9BAE89F
3DC70868
3E3414A5
BD648302
BCC54BCF
BD7F7058
BBDC03A1
3C0CDC1C
3CDA5B96
3CB04CCF
3E13458D
BC580A18
3D221EA3
3DCA4C1F
BCA6C5D2
BCD8F4F9
BD18CB08
BD92C40D
3DC32E38
3E73D07D
3D940464
3D5BD0E1
3D900A39
3CFD06BC
3D803819
BD0638C9
3DF9C62A
3C97FC76
3E1D36F8
3D21CBCD
3D7168F9
BDBE81CB
BD3AE89F
BDC78317
3A0546D1
3CE3B8A2
BD45718F
3D8C9EAA
BC96D4C3
BB16A5C9
BD113D75
BD8ED80A
3D67429A
3CB0D520
3DAF75DA
3C3B341E
BD0FEEF6
BD08A8B1
BB59C6B0
BC184CFE
3CD0678C
3DBE6ABA
3DD90C0B
BE085DB7
BD54EB14
BD065626
3D5A500D
3BB27CBF
BC942D49
BC57F51F
BD304253
3D879896
3D96F2A6
BC4D184C
BC9B5419
BCA2B170
3C3CBE62
3D40BAA6
3DE4A383
3D3E596D
3D6C4502
3D61D649
3D3861A6
BDF14120
BD27A850
3D84C37E
3CF90753
3D89E4D6
BD6B723F
3D4691EA
BDBA743A
BDD5CFAB
BD8E392E
BD0CA1CF
391409B8
BD0E69F0
BD0985F0
BBC37D99
BBA0CD6B
BD2687F4
BC0619F5
BC317482
BD0FFEB0
BCAD4D40
BD8B4635
3BF7D087
BD39841B
3CB721D5
3DC26DCE
3DDF2BAA
3DBE0BD4
3C4C2939
BD0CB189
BD710668
3D8A44C8
3DE8B6D8
3DDCCB7D
3CCD4CBA
BDD21FF3
3D640A6C
3D1FA54C
3A90059C
BC38F14E
3CC9B1FB
BC8259E2
BE239043
3D8F8727
BD051EB8
BE113943
BE32AD82
BCDB78CD
BA1137A0
BDA54930
BCC73472
BBEF00D4
BCFA17F4
BD35360D
BE21797D
3DC11905
BDBE9B7C
3C3DDB98
3CE8AF81
3C505F29
BC1097FE
BDF81301
BDEBF877
BD3DC6A0
BD252157
BDE13D32
BD0AD363
3C7761CC
BDBDA9CA
BD997247
BD15CFAB
BD4A009F
BCCA7504
BD8E5471
3BBEC4CC
BAE0AF02
3DF13166
3D81F213
BD52B2C0
BE10A915
3ACBE1EB
BC95A07B
BB81F2B4
3B3EBABB
3C6F177A
3D47BBB6
3CA074EB
3CE97F20
BDBB6912
BD1BD838
3D55D80E
BDBB05FB
3D29B6B3
3D83E426
3D798634
3D936F7E
3D2DD484
BACA4F44
BC4B6417
BCA3AD19
BB4273AD
3DA8B08E
3BF4C7BE
3C912FD3
BCCBCCF3
3C8A265F
BE1B44E5
BDBF2B24
BCF5BA2C
3D5C6E2B
BC25870E
3C726AEC
3D431F04
BD1806F2
BD18C08B
BD4CE1C6
3AA4D60E
3C769446
3DB4FC61
BC11D3D2
BDA72863
3AA826FB
3B4CD530
BD10678C
BDA9EB20
3C1129F4
BCDD0B74
BBD2849D
3D818CE3
3CBFCC9F
3D8CFD09
3C4126A6
3D57774B
3D8C11A1
BDB93EE6
BD33F530
3B8A4569
BC78726D
3D003DDE
BC1719F8
3B7C8953
BD7ECEDD
3DA10C6F
3DB1A869
BD8686E8
3E025AEE
BD29AA1D
3DAFC2EC
BB2D5E72
3C9C3266
3D473472
3CC523F6
BBEC6A21
3CCFBB95
3CEE0D24
BD9C5693
BD54FBDB
BB10795F
BA718B73
BD900B46
3C08ED7A
BAB87527
BC1C0CA6
3CBA2596
BCD45C79
BD50C1B9
BC6BAADE
3D42C2BD
BD23E5B8
BDBC5E70
BD9E6794
BD815443
BD76CEFF
3C634331
3CBC89F4
3D344A1F
BE1628CC
BD998288
BD6D19DF
BC8BD231
BB5864B1
3D22A4DB
3CD7DE0D
BD96A2F5
BD5C26DD
3CC68449
BCCC3E32
3D232F45
3D0A1CEF
3DA69A4E
BCD466F5
3DAC2E77
BCFF0457
BCCF9A07
3D6B1C43
3CBEE1BD
BD77E3D2
BDA7F562
3CFDEB53
BB7E1A4D
3D789D6B
BDC76C8B
BCAF5DBC
BD1B1A6D
BDD8F1D4
BDAFA69C
BCDFB0D5
BC231396
BD998527
BD917ACC
BCE789E7
BD140789
BD41259A
BD945F18
BC7D36F8
BC8D51F8
BB7B7989
BD6E9FF1
BD910774
BD3B2FEC
3DF52A84
3D5CF249
3CE7A95D
3C90752E
BD23DA30
BD1CF788
3E372474
3ED24DD3
3E2A5269
3D235504
BD88D196
3D3401C5
BC386B16
3E8EB702
3E93B646
3D1E8816
BC9EF73C
BD33BD9D
BB00AAB5
BD9E670E
3E01DA7B
3E16FD22
3DB70BD0
3D7F35A0
3D2805A3
BD2BB98C
3BE486FE
3DF66F93
3DB36AC6
3E18572A
3C867CF2
3D3CEE9E
3CCD65E4
BD92BDC2
3E3CF56F
3E527BB3
3DCB0C02
3DC8BC9D
BC9055B9
3BA87D62
3B10B5C5
3CBBBE88
3D65A038
3D92C8C5
3DD69C24
39E37FC2
BD8AE31D
BB907B0D
BD02F0E1
3E025D8D
3DB98634
3D8D2ED8
3D6324C8
BD3A8C58
BD74FA48
3E003EEA
3EF5CD0C
3E8A6224
3E0014F9
BBD98CCF
3CE032DB
3C222E94
3E426AA9
3E8AE148
3DAA5C5F
BC967CAF
BD386F48
3D19FE43
BD4F00EF
BCF4E443
3D4AD8A1
BC89E343
3DD3B8E5
3CB7BF1F
3DE57A78
BC07E176
3BD396EB
3E22EB1C
3E1F5AD9
3D434B0E
3CA962D0
3D967DBB
3D1B8BAC
3DE786C2
3E66F933
3D55D1C4
BD1375C9
3D4C0F02
3C77F499
BD558751
3DD6B65B
3E029C78
3C3AADE6
3CAD2136
3B91F637
3CC8344C
BAD0C225
BBE0FEB3
BD046B6A
3D1AC57E
BD1A9110
BC9FDDEC
3CFDA405
3C569D30
3CE4D7F1
BD0DF15A
BD3BA882
3C90C4DF
BC3E7F2C
BC29691A
BC115B07
BCE136E7
BD38897F
BC786A0A
BCAFCAC9
3C81259A
3D21E3EB
BC849668
BD2B1B37
BCFBC7F7
BCF79421
BD1E98DD
3C610492
BCE8A0D3
BC276966
BD3300DE
3CC738A4
3987498B
3C93DB7F
BC048E04
BBCE703B
BD208D09
BD132B56
BD48A698
3CB6DEB9
3D28AF81
3D4536D6
BB578232
3D3BBC6F
BD0DE6DE
BCF5E41D
BC3E4CD7
BD479E5A
3D0C0DF6
3D43C8E2
BBA4AB46
BD1041CC
3CFD805E
BD1D4845
3CC9A34D
BCA9BAE4
BD374FF8
BA39178E
BB66E3CF
BCC8C2E7
BC1E448F
BC81754B
3C95DB34
3D234FC6
3D31AD21
BC8EEAEA
BD431487
3C692D56
BBF9A8CE
3C24DF48
BD079F66
3BA5B963
BC1C6A9A
BCB7824D
3C9D16FD
3CC282C7
3CC74B84
3C1E2585
BC41B110
3D427A63
3BDF90F5
BC4729F6
BD554328
BC239FAD
3D293E1D
BC393038
3D186120
BD450BD8
3BA3A663
BBEFF343
3CBEEC39
3C005525
BB82A3B4
3CAF598A
BD3952D2
3C8E9707
BD1A63FA
BC811B1E
3C0F803B
3D1DE482
BC2F74CD
3C971194
BC639B45
3C91E860
B9DD5404
BD0984E4
BD4CED4E
3C8FDE2F
BC1C0A8D
BCD6F32C
BD1B328B
3C4B252D
3CABD1AB
3D214163
BBB822F2
3C347C74
BD1AD213
3D162E0A
3C42BD7F
BB5FEFBF
BD09A672
3A06C4AB
3C61650A
3CF0068E
BD0AEEA6
BC70CBB0
3C51E109
BD131983
BC90D9D7
3CEAB368
3C2D81AE
3CE1847F
3CDD26B7
3D033615
3C46AC21
3D0F52B9
3C6B7889
BD326395
3C6D245B
BD3BEA92
3C83B81B
3C550225
3B99FE43
3D1D9A0F
BCE672FC
3CD08D4C
3CF3B85F
BD0A04D1
BD2225FA
BC92D341
3D1BB16C
BB5B7E40
BBFCB84D
3C160A2E
3CD82342
BCD68A50
3C247A9E
BD472086
3B756141
BB5040F6
3CC2EBA2
BD4ADCD3
BD591255
3CA62AA2
BD1274E2
BAD06AE7
BC5CDB38
3D27008A
3CF6CEFF
3A3D29C2
3D2936C6
BCA6F60E
BD5FCF3E
3D383BE6
BC20B79B
BC9DD5D4
3C126E98
3904548E
BD5FA333
3D179F23
BCCEEE0F
BC529DC7
3D32FEC5
BC24DF48
BD1A7E31
BCFEF5A9
BCE81238
BC54C76D
3C0E820E
3CB12B1B
BAAA89AC
BD065300
BCFA52AC
3C8A8B09
BD5B7F17
3D21B4BB
BD3BBF94
3D361459
3D018506
BC07C26C
BD136C59
3CA52264
3C995465
3CC942D5
3C19411A
3BDA9288
BD1EFFA0
BCB71DA3
3C616D6E
BAC692F7
3D210E02
BB0C012B
3C88CC57
BD482060
3C7B58D1
BD1FA97E
3D30F16F
3B797827
BCDD0B74
BC87AD08
BD006F26
39511E15
BD2C12AE
BC961C37
BD248F97
BC44588A
3B6FB2AB
BD10470B
BBC476BD
3C812381
3B0BCD28
BCF4E011
BD0F7B9E
BCBC3611
BCB28D86
BD19D884
BD388766
3A705568
3A01186E
3D182A99
BD026352
3D03686A
3CDD00F7
3D22B170
BD577425
3D1BEE3D
3CEE5ABC
BD3AB96F
3C425072
BD06A6E3
BC747F99
BC208399
BCACBA73
BD32788E
3BC1FF13
BCBF9C63
BD0BA626
3D18B503
3C4BEA4F
BBC62FFB
BD355CD9
BD3C5DEA
3D092147
3CA43DCD
3D1DCD70
BC1F25CB
BC8E7DDD
BCE95B79
BCE7E415
3CFDBD30
BD1A6F82
BD10D6B2
3CD98E11
3C3D2FA1
3CD0A676
BCF394B8
3C868FD2
BCBECCC4
3D12D128
3C910A13
BD129BAE
BD50F734
3D2AEAFB
3CB480A6
3C2D6020
3C3352A8
BD511BE7
BD0B1BBD
3CD2C387
BD0CBF2B
3CF3E250
BD1EF630
BD0346DC
BA5FC8D3
3D4470A8
BD112DBA
BCAB7BAF
3B867423
3B247ED0
BCEF0069
39832D47
BCFD5886
3D14C122
BCC2E771
3CE82B63
BD0AA433
BC58665E
BCEB8738
3D262ED3
BCF162AE
BD45729B
3CEB7CBB
3C97CA21
BCB98C7E
BC538CDA
BD28C8AC
3C4DC444
3CE7D567
BD03FF69
BD1A511A
BD12ED78
BCF32379
BB0B37D7
BD106141
BD2EB3DD
BCBBBA56
BC310343
BD3F401C
BBD637B0
3D38A6DB
BD43BB41
3BBF3F46
BD5CA3A5
3D2C6BCF
3CC61954
3C566F0D
3CE9FCF4
BBE113AC
BC93B18E
3C8F861A
3D257647
3D1BCFD5
3BC16A99
3B12B071
3CEB399F
BD06F36F
37605C99
BBCCFC9D
3CA8C79F
3BB3E3C8
3CBDF091
BCD9D990
BCD9A0F1
3D1ECF64
BD11A21F
BC8DAE3E
BC54F15E
3CE5796C
BD097311
BCF761CC
BCA3BDE0
3C7A2F06
3BAB43E6
3CB1769B
BC0E1933
BD14B8BF
3CB09635
3D313F07
BD3E3194
BC80C73B
3BC1B1E7
3BDE72E7
BCF4E875
3C9C1D6D
BD03BF72
BCBE9857
3C63C969
3D1DFA87
3D3BCA10
BCEA0BA2
3CB0B9DC
3B7C1590
BD526741
3D2A26E5
BBE30BD3
3D24BDBA
3AA68032
3D290DE1
3C93C03C
3716B38B
BD464990
BCE19FC3
3C84B7F6
3D04816F
3CC8B86B
3CFE21D9
3E24C597
3E277708
3DC3EF28
3D153BD1
3CF0ED3E
3D883127
3D91F256
BAAD90C7
3CDD6E05
BCC4998D
3E104AB6
BD136934
BC089E34
3D9C6EB1
3C99A62F
BC53176A
BD114D2F
3E001798
BC53176A
BCA552A0
3E089F41
3D9316E3
BDAED890
BD4F4B62
3D185597
BC46DA45
BD3EDA66
3D4EAE19
3BE20DA7
3D20D34A
BD9D0A67
3D965BA7
3D60C5A8
3D8F2841
3DE060FE
3D9D31BA
3D29BE0A
3DF150DB
3E00D994
BCC6E08F
3CA96F65
BD6617C2
3C55F56A
3ACE230E
BCA4B557
3C808638
3D465300
3D1C9A35
3B585745
3DC38B8B
3DDCCB7D
3D96ECE1
3CDC0336
3CB3CE64
3B11C235
BDD3D85A
3CD39325
3CA9F59D
3D9C8B87
3D944780
3CB74FF8
BD67F90E
BCBF91E6
3CE05AB4
BDCEAF25
BD36F08D
3DBC02B0
BBF6DEEF
3D106141
3D344F5D
BAE57B19
BE12FC26
BE383276
3D8516DB
3BE582A6
BD1C10D8
3C1932D7
BD0E208A
BCAB3461
3C2FD977
3D88FC93
3D9A2E7F
BD52C5A0
3C8283D3
3C87789A
3D8EB5F6
3DA2BCF9
BD3F0ED4
BD78B04B
BD8A361A
BDE53112
BCEDF82B
BD9E0935
BBA583B3
3CC4651F
3D129CBB
BCCEE9DD
3BD4EAA8
BC0C7630
3DD0FA59
BCAE87D3
BD02E126
3AF6639F
3C6221C9
3C83F91E
3DB0B6B7
3E794AF5
3E7C3372
3D19DA9D
3CB827FA
3D77F38C
3D3D640F
3D22089E
3E2B851F
3D210E02
BBE9856A
3DBED070
BCC625EA
3D575C07
BCB3F423
BE378034
BE2CD20B
3C89B739
3D809B30
3C972CD8
3D7A12B6
3E226FE7
BD1C2C1B
3D19CF14
3C46D613
BCE6A338
3C89F1F1
3D8599ED
BA9D6ADF
3D84D7F1
3D8013EC
3D62FAD7
3BA29ACA
BD936263
BD868662
BE258794
BC757F73
3D2E2329
3D1A5871
3DAC5975
3B47E0D5
3CDD7881
3D87E953
3D71A3B1
3D820685
3D6107B8
BB3B50A4
3D078748
BD5A8AC6
BBE9CB0A
3C1C5C57
BCC3EB7D
3D77F499
BC8EA183
3CA34656
BC3DA0E0
BC93708B
BD11DFFC
3D108E58
3DB89E77
BCF5AFB0
BCED3954
3CDE3FBC
BC7A7EB7
BDA066C3
3D0DBAD4
3BAA4188
3D753A3F
BC138518
3D5F70DF
BCF0AE53
3BC6E52C
BCDCE7CD
BC53176A
3C15563E
3DB240FB
3DE64C30
BC043519
3D9DA0E0
3E0533B1
3DA4F11B
3C71F9AD
3A886819
BC7190D1
3D989EFE
3DCEB9A1
3D4982CB
3D4A0E41
39B3A45D
3CD35222
3D9B2789
3D22B9D4
3DCF861A
3D8595BC
3D808F21
B90DE200
BD16D5D0
3D0D013B
BB6FA89A
3D79628D
3DB2F901
BD27E1FC
3D3D5ED0
BB8EB108
BCE1C9B4
3D9AFE1E
3CB0E7FF
3CAD96A7
3C14BC50
3D635E74
3D980885
3C4B5782
3DC682B6
BD841FEB
BDCEA4A9
3D13EF6B
3DA935B9
BBF22475
BD8B495A
3DE80496
BDA6D58D
BB97437E
3D835C5B
3DB8BAC7
BB443A57
3D32A38C
3D60B3D5
3DB98F1D
3DEE978D
3E042310
3D8895D1
BD15592E
3C32F230
BBCFF2F2
3D3E1006
3CAD2136
3DBC193B
3CA5B74A
3C11A834
BD2D40AB
3D0B44A2
3E053650
3E1E4F76
BCCBF6E4
3CCBCF0B
BD2A7BD5
BDBD4D83
BD9511E0
3D06A6E3
3DFC6541
BC02FF8F
BC076915
3C30FF11
BD563348
3D078B7A
BDDF6556
3D12BA17
3E089F41
BC23F035
3D1EE243
BD9CBDDC
3C2AEF2C
BDC0DF59
BE2A9153
3CCC4AC7
3D3F23CD
BC99E519
3C9843C4
3CCF6167
3C1A9542
3DC08206
3D9184C2
3D1704FF
BBED6BA9
3BAAEBD1
3CC19E30
3DD35FC4
3E134ACB
3C58383B
BD949518
BD29691A
BDE9B281
3C4C7D1C
3D530058
BD3CFB33
3D9B2FEC
3C023D5D
3DCE0221
3DC9802C
3D4F0521
3DF2CA58
3DB80CB7
3C78DB49
3D35FA22
3E0A7C5B
3E596A6A
3D9FF584
BD66BF87
BD4CB296
3D195AAF
3D6E05CD
3D290DE1
3D37164C
BDB38F7A
BDD5475A
BD8DCDB3
3D87F2C3
3DCF9097
3DA27419
3D7078D9
3CEB50B1
3C5EF848
BD8F6513
3D384CAD
3D7B0814
BD606317
3D87D780
3D818A44
BB65FDF6
3C981BEB
3DD197A2
3D5797CC
3D0BBE44
BD918549
BDCB5675
3D5703F3
BB0333FD
3D0588A0
3B7BA1CC
BCFDE93A
BD883665
BC8DA1A9
BD31EC0B
3D1D3997
3D716095
3D97FF15
3D871BCE
3DF84231
3DB68F08
3DE8D10F
3E1ACC4F
3BFDD228
3D3BBB62
3E00D456
3E4DB61C
3E7BBD7B
BC845565
BCBF61AA
BCA51E32
3DC8BD23
3C138441
3D3749AE
3DB1140A
3C137B07
BDF9042E
BDA8F191
3D1B8455
BC07C709
BD10AAA8
3DF03AFB
BBCA785F
BC8F8C65
BC5A6E76
3BBECEDD
3D3DF2AA
3DD1DBCB
3BFC2F91
3BF98161
3D5AB8E9
3D2BA062
BC08DC48
3B27E3DF
3C42C1B1
BC9D3AA3
3D3EDC7F
3CD48451
3CC0E172
3DBE785B
BD6860DD
BDDDD1A2
BDA257C9
BD30DD83
3D2C93A7
3D3FDB4D
3DB88A8B
3D4B3B32
3D238540
3DA9A027
3D6D0C3D
3DF7AF64
BCE4CB5C
3DBDF224
BCCFDF3B
3C706706
BC4E8102
BC781E8A
3CBC0C20
3CF090F7
BCEB0B7C
BD452A41
BDAE2FBE
BD840C84
BDAB0C89
BC83DFF4
BD92799A
3D1BCA97
BCA641B3
3D0C3D25
3CBD33D3
3C9AE4F3
3C08905D
BDAB3CC5
3C92B3CC
3DCE8534
3D2CA46E
3D24302B
3D1758E2
3D94B05B
3E28B6D8
BDA06B7B
BC7B5D03
BD640E9D
BC99F7F9
3DC84F09
3DF630A9
BD832A8D
B9B248BD
3B99DD8C
BC37952D
3B4258D6
BB3EEEBE
BD98090B
3D0801F7
BC8CF180
3D419D24
3C3AA9B5
BD1E8816
BD04FC1E
3DC53006
3DA35D68
3D3DFF3F
BB6003E1
3D18C4BD
3C6C41DD
BB5FE0A6
BD80ECFA
BDFD8ADB
3C304EE8
BCDE3971
3D39C51E
3DDEE243
3D9BCEC8
3D1931CA
BE19F2BB
3BF2A3F7
3D8DBF8C
3D6E6D9C
3D5BE1A8
3DDE3001
3E15F99C
3D503A75
BCB2F87B
BD49F623
3C1B5F6C
3D81CDE6
BBCC02A2
3CE21965
BD84A59C
3BCA0C28
3AB90F81
BC32CC71
3CB20B80
3CCEC850
BDCF0308
3D3CAD9B
BD9C6E2B
BC43A42F
3D7ECFEA
3CEAA8EB
BC74A98B
BDA192A7
BA3C4AF4
3D07021D
3C7A6DF0
3C56A9C5
BD0F28C8
BD0BE1EB
3D3C5586
3D514F48
3D47A7CA
BD0826AB
3D41A262
3CC8BEB6
3CD43F1C
BCEE34FC
BD6275AB
BCBF6C27
3C3C72E2
3D4F5C29
3E4A8C15
3E619E30
3DB8FEEF
3D817B0F
3D210ADD
3D403DDE
3DEAE7D5
3DB4DAD3
3DAB0C89
BBB0DD83
3BEBA4FF
3BE785B6
BC2067EA
BDA29B6B
BCD73EAB
3C923E5C
BD952E30
BD868CAC
BDE02214
3C1DD858
3D2F31B1
3DF43E96
BBAE36E0
BE3119CE
BD959CD0
3D85FE11
3DE81ECD
3E111490
3EA52BD4
3D8D6FDB
BD25B20C
BD9BDB5E
3C4308FF
3CF84663
BD284DFD
3AF274FD
BCE12839
3CCF4C6E
3D00A7C6
3DA73EEE
BCA93D10
3D3037D6
3CE3BCD3
BD9F609E
3D9EB314
BDD3CDDD
3B2B8F65
BCC1E365
BC7709B7
3D5CAC08
BBB063E0
BDA59B80
BDC98E54
BCA003AC
BBC451D4
BCC87981
3D6A11ED
3D589BD8
3D949518
BD1BAB22
3D22EE42
BA9638BC
3CBF61AA
3D11D042
3DA2B1F7
BBB3FF76
3D2EF805
BDB6AD71
3D12428D
BCB039EF
BC10E022
3BBB53FF
3DBE19FC
BD43265B
3D345283
3D0576CD
BD7CD142
BDBD2B6F
BD9836A8
BD17B84E
BD3FEC14
3C23889B
BC8F5A10
3CE1CDE6
3D7C5BD1
3D5F6DB9
3DB27568
BCE8A2EC
3B44BD34
BB599B11
BC19C8FF
BAC395EC
3D4C76D1
3C8BEB5B
BC730A4E
3CB24C83
BC7B00BD
3D1AC259
BCA90471
3CB09635
BC86F04A
BD6743A6
BCE20CD0
BCDB5526
3DB3C03C
BCB588E3
3D9C17A9
3D6ECD08
BC7166E0
BC623F25
BCF9CE8E
3BDCCEA3
BD013986
3D4C100E
3DBC01A3
BD8C2BD8
BD1ED4A2
BCE89EBA
BB16015F
BC0E7FF6
3D226E54
3BE3F283
BD7BBD7B
3B4E71E8
3C5D50A9
3D742DCF
BD64E37A
BC88A266
BCBD944B
BCDB530D
3C7D3B2A
3DEEAC86
BB48DC7D
3CCF0308
3C5B5958
3DCCBD98
3CA9B281
3D83D5FE
3D436220
3C301861
BD3E61D0
BDB569F5
BE0385C6
BD43F5F9
3AD20E55
3D5C9B41
3DA6EA85
3D86772D
3D5B63D4
BD50FE8B
BE6A86D7
3B98EDA2
3D4E94EE
3E0378AB
3DF00BCC
3DAC508B
3E17C1BE
BBA3146D
3D1CDB38
BD1AE70C
BD7C98A2
BCF31D2E
3D597B31
3DDBDA51
BCB70479
3C1B8598
BD5CE5B4
BCBE0DED
BD0B49E0
BCF1D1D4
BD81C0CA
3D4575C0
BD04F095
3DD0FA59
BBFDC3E6
3C91D9B2
3C7AF859
BD6321A3
BCCFFA7F
3B9765E3
BD9934F0
3DCCF180
3D93BE23
3B740AFF
BB01AEC1
39FA249F
BDA8BEB6
BD6FE2E7
BCFE8AB5
3E9C432D
3DFFA6DF
3DF87BDD
BDDA6613
BC04FC54
BCBC6EB1
BD4637BD
3D0840E1
3D7C6973
3DA4D4CC
BE099D88
BD5A3098
BD1FA872
BCDCAF2D
BE50A676
BCFC2CA1
3D7DA837
BE095183
BD267514
3D28650E
BDB6AB58
BD975EA6
BD99F773
3D643BB4
BDA69D73
BB5468A3
BD81B4BB
3DBB139D
3D272EAE
3CC197E5
BCE7DDCA
BC8DA3C2
BD7A4B55
3CFA28BB
3DE3E187
3DC53F3A
3DD16DB1
3CB46994
B8810001
BABF9683
3C1E01DE
3D9EB181
3E4B11C7
3DA54CDB
3DA71716
3DCEF34D
BD5ECF64
3CA78D0D
3DC68E3F
3DE0D994
3E64CAD5
3D22AC32
3DA3FBBD
3C4B70AC
3E07B353
3C6A39C5
3D07032A
3E06BCE8
3D11FC4C
BBD78664
B9492E07
3DBD0529
3D96C376
BDBA3A8E
BD95781C
3D8F1993
3D2ADF72
3B445027
BD9898B3
BE07B891
BDE161E5
3C841462
3CA33BDA
BCADCB14
BD480B67
BCBB6241
3DBF8A8F
3CAF4F0E
BD9D97F6
3D61C9B4
BD77B070
BD1C3AC9
3D063066
3E364841
3DC1E258
BD6AAF36
3D22D40B
BD74FF86
3D085B18
3C75A965
3CC2656B
BD170E6F
3DAD3B6D
BC7E3B04
BD38C437
3D507B78
3B37513B
3CE707E1
3C89ACBD
3DABA301
3D25CC42
BCBF0DC7
BCB61DC9
3D03D039
3CBB6028
BC1BE752
BD8F8C65
BDE51C19
3CDA7F3D
BD24F334
BDA9973E
BABA79E4
3E030D30
BD810C6F
BCE45E4E
3D549F95
3CCCDB7B
BDD234EC
BC84FD2A
3D7BE22E
BD9A1DB8
BDB45CFF
BD179BFE
3D1DB339
3C91819D
BCCC660A
3C32EDFE
BC27008A
3DD7EBAF
3D8A2446
3C4E032E
3DCFCF81
3D3F25E5
3C848388
3DC85C25
3D3A96D5
BC85CAB0
BCAF4F0E
3C0FB946
3D8B0D95
3DA472C1
3DA97397
3C20FF54
BCC013EC
3DA4D7F1
3CC3AEAB
3D860243
BB1043B0
BC9513F9
3C62046C
3D71C21A
3C8611FD
3B9E7FB2
BD39E59F
3CC3DCCF
3DAE1A3F
3DAB1F68
BD56659D
BD3E2D62
BD270197
BD76F2A6
3E138477
3D93D4AE
3CC69D73
3CE29739
BC5D93C4
3CAF2F98
3DD0F51B
3CC51761
BDEF251C
3CE06530
3E291299
3CD323FF
3DC21640
3D28EE6C
BD59B4DD
3DF60179
3CAAC96D
BD8391D5
3CC37825
BBB41B25
BB3D647A
BC3B98C8
3D80CBF3
BDE641B3
3B241015
3D34A665
3C3CB5FE
3CD8AB93
BB44F63F
BCDEA034
BC1AAB12
3CE7A95D
3D54C87A
3DC686E8
3D35115A
BD1BC665
BCBAF74D
BD38A7E7
BD02EEC8
3C6A7CE1
3D8E6751
BD29068A
BE0E50C6
3E0E5B42
3D24F766
3D87FBAD
BD71D3ED
3D1AA1D7
BC285CAB
3AA4B480
3DB53049
BC4CB3A2
3E08E369
BA21EF29
3D619546
3DAEA8DA
3C580A18
BD257D9E
BE01187E
3B9FA11B
3D37574F
3C7AF859
3DA17093
3D586552
BDBDEF85
BE0D5CFB
BD10CA1D
BD3DCCEA
3BB838C1
3CBFD934
BE3F3B64
BD53A4F8
BD88919F
BBBA9FA4
3D75243A
3D00D90E
3C69AB2A
3D84FC1E
3D3F25E5
3C736AC6
BA670FC4
3DA4E1E7
3B9F185F
3D4D8234
3D3FD1DD
3C5117B5
3C4E7CD0
3D036113
BC03D3CA
3D0B4E12
BC87980F
3DCB7C35
BCFA0514
3CE85B9F
BD09949F
3BE6FB4C
3D16B980
3DD249E4
3D5AF3A1
BDA38F36
3D81FC09
3D1C1616
BD63D923
BB18676A
3D1F7836
3D618266
BCB19610
3D90092D
BD5C26DD
BB91AE13
BD29A1BA
BD733DB0
B9A2FC44
3DA1B64E
3E0176DE
3DCC81D4
BCA326E1
3D7498C4
3CA8C155
3CD28D00
3E02BE8C
3D98AA00
3D0C4695
BACB4E48
BCF98740
BCB178B3
3D1F4F51
3D20BF5D
BCA38972
3C435CE2
BD0DA900
3CCF0308
3C52391D
3D09B520
3C5AB5C4
BCEC5D20
3D9C7821
3DA59F2C
3D5F2021
BD8651F4
BD667A53
3C1DC578
3CE9142B
BD06AB15
BC1E8B06
3B4F8BC4
BDEFC265
3D9D82FD
3DAB54E3
BD5BBADC
BB8FCE3F
3B4AD8D7
3CAF251C
BD39C94F
3E04EA4B
BCB43D8A
BD77A4E8
3D497529
3CA4228A
B9BB5805
BD600D1B
BD13250B
3BC5098A
3DA41787
3D201DE2
BCA06A6E
3D8AB580
BCB22292
3CD04817
BBCA9337
3D65C704
3B805CB2
BC4B07D1
3C26F827
3DE147AE
3D6A8B8F
3D34D270
3D69F7B6
3D8E0DAA
3BC4EEB2
3DB35B92
3DABD902
3C95EBFB
3BE6EDE0
3A67EDE5
3D43675E
3C78FCD6
3C00B1D7
BCA84599
3D267B5F
3D8DB057
3DC5F4A1
3D3DFD26
BC86C43F
BD999568
BDA5ED4A
3E0840E1
3D564C73
3D523D4F
3D5696E6
3D223077
3CB9F773
3D1B0BBF
3D6A9E6F
BDABB55B
3DA0346E
3E06E979
3CAA6B0E
3DB224AB
3DA9B739
3C0BA479
3D7AEFF6
3DCA02B8
3C0B7B5E
3CB252CE
3C723CC9
BC422AB2
3BF410DE
3DB30CED
BDD58B82
BCF36CDF
BC489B0F
3BA24463
3C69CCB8
BB262599
3CACD7CF
3CC195CD
3D04816F
3CAD70E7
BC9D4D83
BD9D4CFD
3E05119D
3E122D0E
3DB8C3B1
3D2BE165
BB1E3433
BE246C76
BE3797CC
3D802EA9
3C721709
3D43DEE8
3AB941D6
BCCA9479
BE631F8A
BE633722
BD00713F
BE23F141
BD22C775
BD8A8C15
3C497D8D
3CED71F3
BD6C29BF
3D78E3AC
BD405921
BC0B574C
BC292E62
3C31E9F2
3DAE2C13
BC56E47E
3CA6698C
BC5D095B
3DBC4546
3D546801
3CC50481
3CF6C482
3CD935FC
3D765669
3C94FF00
3D305FAF
BD22A6F4
BD372B45
BD09D9D3
BCD1569F
BB80918B
3CB0FADF
3D0D26FA
3C2A326E
3B064F3A
3B363E15
BCD525CC
3DBCE960
3DEA161E
3D1F1F15
3DB177A7
3C7C9FF9
BC2BC515
BDD9C8C9
BD0A7B4E
3DF212D7
3C10511B
3D40064B
3D5A2835
BE1544BB
BE638DA4
BDDB4784
3E09A565
BD1A5333
BD541312
3D32F449
3B9CBEE8
3D20A0F5
BD7B3312
BDB342EE
BCB9713B
BCB8F367
3AD73506
BD709D8C
3D871B48
BDBE8251
3D25B0FF
3D8769EC
3C5640EA
3BE41AC7
BDB369BA
BCC58256
3C3A3012
3A466758
3D914EC2
3C908A26
3B99A98A
3B43ED2A
BC3F2B24
3DC0357A
3E41F9F0
3E4C6152
BCA6A444
BD0D013B
3D10678C
BBA3641E
3D81A501
3DE02752
3C3E2718
3DFBA344
BCCBC05D
3A9EACFF
3DC36EB5
BDD389B5
3C7C86CF
3D17B41C
3E2A8EB4
BC233D1C
3CAB10BA
3D9DCE7D
3CBB05FB
3C742785
3DA0A0F5
BD6645E5
3D075600
3D54BAD8
3CEB0963
BBDD532D
3D49320E
3C498A22
BE0B9A17
3C92923E
3DE80F13
3D5973DA
BD9FB3FA
3D019D24
BC168944
BC68E608
BB6FD439
3D92CF96
3D7ECBB8
BCD0F40E
BDAF6B5D
BD0B5137
BDDFC8F3
3BEE6B83
3D177A70
BB7E0E8E
3DB7AB32
3D8DCDB3
3CCE032E
3D6E5DE1
BBC2F32F
BCC23960
3BEC76B6
3D148451
3D1F6FD2
3D48ADEF
3E3AC472
BDB52978
BBF3ADE2
BD16F86A
3D609785
3CCC48AE
3CFA26A2
3D6CEEE1
BCBDBE3C
BB27C5AC
3DA66FD6
BC1AE12D
BD890F73
3CAAE4B0
BD6ECAEF
B964C9EF
3D96F4BF
3DA487BA
BDA3DEE8
BBCA841D
BD4F3344
BC1B80FA
3C634B94
3CB14014
3D021F2A
3D3E3D1D
3DFD36F8
3D60A527
BE1B9B67
BC3402D1
BB20AE61
BC24E7AB
BD967C28
BE082E88
BD0919F0
BC965D3A
BC35CBFF
BCDFF60A
BD834D27
3D824E59
BCA01EEF
3C6BD4D0
BCBA81DC
3D3E6B40
3D24C1EC
BCDAB5C4
3D6338B4
3D865732
3CC154CA
BD28166A
BCCD61B3
BB928757
3CAACD9F
BCAE642C
3D446413
3D29A911
BD80CF9E
BCE85FD0
BC9717DF
3C95B35B
BE03C212
BE10C88A
BE33BE23
BE008073
3D278C00
BDBDB552
3CF9C843
BDF03AFB
BE27D2C8
BD0FDB0A
BC8589AD
BD19A30A
3C2285D1
BCAB734B
BDA50508
BB6BD175
3E1B90EB
BD2584F5
BDD36A40
3BD95069
BD4AD8A1
BE8DE00D
BD40E38A
3D42224F
BD67674D
3B814007
BD3E8FF3
3CF9207D
3A22760C
3D3036CA
3B4A7FEB
BB86BD1E
3D088A48
BC2515CF
BCE325D5
3D3F993D
3DD8C2A4
3D858687
3DE2C12B
BD78FCD6
3C596638
3D710236
BD9C07EE
B984406C
3CD9AB6D
3DB61028
BD55C960
BCDFBF83
3D01CE6C
3BCD8483
BC8D5C74
3D3AA9B5
3D0589AD
3DC99956
3D34299E
3C298EDA
BD444AE8
3CFC829D
3CFD0F1F
BE04CD75
3CBC7B46
3D2DDBDB
BC7A1A0D
3D5FE975
3D02B735
BC8155D6
BC91DFFC
BDCA9585
BC4F7447
3E0685DB
3DE5D8D8
3B3597FD
BD84D76B
BCCAD9AE
BD59C7BD
BD05F8D3
BD12F6E8
3D06CEBC
BA44E374
BC16913C
BD50B0F2
3CFFB8B2
3CCEA8DA
3D46B8B7
3D339192
3CB5B0BC
3C7E4799
3D1E7C8D
3C910C2C
3B8CE04E
BBFF63F9
3C39884C
BCAA8006
3C8194C0
3DB1116B
BD25A145
BD11F927
3D3CC187
3DA2C450
BD22A0A9
3C133F78
BC022509
BD1798D9
3D6E008F
3B156C0D
BD3E2A3D
BD8A2121
3C11F41E
3CD946C3
BBD491BD
3C5A9C99
BC863172
3C15B864
3DC3A648
3C13F4AA
3CD12019
BD6E008F
BD990F30
BC9070FC
BCAC3654
BDF2AAE3
BCF50C1C
BDBBFDF8
3CC666ED
3CEED246
3C3EE808
3CA3FCCA
3D8EB67C
3C35525D
3D8BB129
BC3DF8F4
BC3A8827
BC26E32E
BCDAB192
BB0E7B58
3E12A844
3E261523
BD10E23B
BD123704
3CBA27AF
BCCF5F4E
3D3E0264
3D417870
3DCCE704
3AFCC25E
BD0A01AC
BD34F93C
BD294467
3C09C2F7
3DC32FCB
3D1CCB7D
3D87CE10
BC1BAAEC
3DA4B7F6
BD5A671F
BC8BAE8A
3C6F416C
3C99CBEF
3CB1593E
3D1F5CF2
3BFD1DCD
3D724FA9
3DD465E9
3D05BE1B
BE09667B
BB07F603
BCD753A4
BA9DB80C
BCBB341E
BD423E9F
BE261A61
BD4813CB
BCFD0071
BBAD8E43
3B57E88A
3BA0F253
3D80357A
3A9CDDF2
BC90B631
BCB7E0AC
3AFC646A
3E701E26
3E6F66A5
3DB48F54
3CDA5333
BB291A40
BD4449DC
3DE45A1D
3D3B16C2
3E0A3593
3D1B5419
BCBCBE62
3E0AF4F1
BD80D456
3D1EECC0
BD351ACA
BD5A8049
BD134ACB
BD5743E9
3D151D69
BCF5BE5E
3CAE275B
BD08ECD9
3CD7518B
3D9F5E85
3D1F6A94
BCB280F1
BD669058
BDAE581D
BE2793DE
BDA8D64D
BC1F086E
3C761672
BD2E0B0B
BC0C8183
BD50635A
BD1F72F7
BD733EBC
BCAC98E5
BDECF95D
BB8CB4AF
BD17CE53
BD564D7F
3B27264A
BDE1187E
3CEF2841
BB6F68D9
BC80E6B0
BD652CE0
3CE6B830
3E8443D4
3E4060FE
3DDE54B5
3D321922
BBB86105
3C32BFDB
3CD12019
3C9F83BE
3DD52D23
3C89D495
BC9C23B8
BC8954A8
BCED8905
3C8B4E12
BD266FD6
3D82A993
BD98D152
BD3E77D5
3CD058DE
BCCA07F6
BD0D141A
3BA0C939
BE09FBE7
BCC5718F
3DA1797D
3C1B5F01
BD7A4C62
BE2D81AE
BE7691A7
3C938583
3DF544BB
BBC5BD0E
BC5EFC7A
BD244418
BDF3C600
BE0CD749
BBDF9450
BDA57647
BD7FCB92
BC70AE53
BCEA0770
BD1375C9
3CB1AD21
3E113E81
3E002752
3E25460B
3C8316A0
BD90C565
BBB69700
BA37C350
BBFA1AE4
3DDB76B4
3CEEC5B0
3DBA4F87
BDB9713B
3B7C3A79
3D304AB6
BD41083E
3D253869
3D8B7C35
BD09374C
BB9D6FE8
BC791A33
BD1E3327
BE1104D5
BDAEAAF3
BD0D9D77
3DC78A6E
BC8F0414
3D816484
3E3CA6CA
3D5742DD
BCB8B695
3D45BE1B
3D74B2FB
BD87557A
3DB2B884
3E32E48F
3DC054EF
BCB47A5B
3D026CC2
3C74128C
3AE453D2
3C9478C8
BC9780BB
3CF18CA0
BD486AD3
3CCE9E5E
BDA35E74
BB9CDA97
B92C250C
BCC959E6
3DC3A323
3DF3B646
3DCBA40E
3D6B1C43
BDC2F7B1
BDC5C897
3D55C63B
3AF5AB12
3D2E392E
3D04E50C
3D777F28
BD1D0636
BC9F127F
3B921A49
BC83F2D4
BC98B934
3D1C5F7C
3D11105E
BDD8A32F
3CE34B94
B8C6E114
3CD3B8E5
3D8D3954
3D2CCD53
3CF78BBD
BD21C25D
3DA729F6
3E88EF35
3D94B274
BD3D944B
3D4A137F
3CFE8039
BB14558D
3C7ACA36
3C348909
BD81858C
BCDB573F
3C84039B
BBAE03B4
BC020883
BDBE2479
BD708EDE
BE264ECF
BE4A2DB6
BDE34EBA
BCBE0158
BD540EE0
BD2F6944
BC18145E
3D02ACB8
3D7300DE
3D12B90A
3CF26AEC
BD5DABE2
3C450481
BD149518
3D88E044
3D406AF4
3D1593E6
BD07485E
BD6C41DD
BC48D9F9
BD2B92C0
BE1EFC7A
BE0E075F
3CFCE52E
BD1BE7F3
BD69CCB8
BC321816
3D36FB09
BCC37E6F
3DFAEBC4
3DE1CFFF
3D871F79
BCE47992
3DA2A130
3E573190
BD28DA7F
BDA3D684
BCA4B988
BD346BAD
BC63D1CC
BCB07076
3C2B4741
BE4D1E11
BE80995B
BE27967D
BD3DFD26
BC1BB426
BE071DE7
BE4E075F
BEA182AA
BE594D94
BCF81E8A
BD5A37EF
B9B66501
BC68D973
3C89B952
BD00A5AD
3D0563ED
3CB9EADD
3CEBE37E
BD230CAA
BDC7E8CD
3CF89C5E
BD433A47
3C805C46
3CAAAC11
3D22CCB4
BDAEC205
3A1DDE4D
3C1691A7
BE0EA4A9
BD4B5782
3D545953
BCA187A5
BD940896
3D867169
3D4A04D1
3C19355B
BD3BDBE4
3CBFBBD8
3D2A9931
BBB1CAE9
3CC577D9
3D8CC469
BD233ACD
BD65FA66
BA61206C
3E1EE782
BC0C2E0C
3C4308FF
3D11DFFC
3CBDEC5F
3D899956
3D9EC893
BC4BFB16
BD9BFCEB
BCD41B76
BC257215
3D54F590
3DA04966
3C319E73
BCDDB552
3CA2AF57
BCAE924F
3D6364BF
BD1EB852
BB4D83AC
BD93708B
3C886DF8
BC306C44
3BEEE0F4
3C653650
3B8A9AF9
BD22B9D4
3BFB8CD4
3CFFDA40
3BC461C4
BC8DB6A2
B99D7F01
BC865F96
3CAB12D3
BCE63411
3BEE4ACC
BCFC47E5
3D70B7C3
3CB33DB0
BC8C36DB
BD911E00
3AE3AC0C
3D9DE050
BDAC94B4
BC4A148C
3DDA2C67
3DA1C821
BC9B64E0
3BB33A55
BCAB862B
BBFF6754
BD593D53
3D20A41A
3D64B988
BCD85DFB
BA8CEA5F
3C8C197E
BCDCAAFC
BD802C0A
BC493EA3
3D09C90C
BC57C6FC
BD573FB8
BDD83516
BD7BADC1
BD5C12F1
BD050481
BC7459DA
3D8332F0
3D5BA2BE
3DE5CE5B
BD05015C
BDC1333C
BAFACE68
BCAF1455
3D4FFB8B
BC522425
3D90624E
BD97FF15
BC2D538B
BD1FFF7A
BDBD0E13
BDAFD977
BD0A148C
3DC9CA19
BCE3E07A
3D1C5E70
3CA6DCE4
BD5D3027
3D1C0768
3DD3A92A
3E187161
BD381F97
3D8B7CBB
3DFAACDA
3D86E547
BCE06962
3D90F1F5
3E0C5198
BD1EE88E
BB824844
3C87BDCF
BC167F33
3C2A68F5
3D5930BE
3D920A74
BDA8BB0A
BE0B8CFC
BDAC8DE3
BDE38866
BE26E43B
BDECE465
BC90C6F8
BD0664D4
3C4DB37D
3D869942
3C3CEC85
3C3EF06B
BD48EDE5
BD90F734
BD4BCCF3
3D860914
3EAC67E0
3E054B49
3C1E87AB
BC92A305
3D667621
3CB7F5A5
BD14488C
3E0FEEF6
3E213FD1
3CF4E875
3D778141
3DC31401
3C576EE7
BD9E1B8F
3DD5E9E2
3E443FE6
3CF18A87
3D294EE4
BCAA1944
BD19817C
3E486AD3
3E24CAD5
3D040075
BDC13DB8
BD99C843
3BD834E0
3D321709
3E633722
3DE400FC
3D378DD6
BD2C300A
BD0D79D1
BDB48345
BC69F6A9
3CDA9004
BDB8CDA7
3D3AD3A6
BD55DB34
BD85729B
BBBA478F
BD95D031
BD525248
3D04C166
3D9C2870
3DB26FA4
3D12630F
BC94FACE
BCFA3769
3C7C7A3A
3E75E4A4
3E06277C
3D5A61E1
3D1A836F
3D837825
3D1CFDD2
3D092EE8
3D7991BC
3DD33094
3D16B010
BCA4AADA
3C4AE643
BD91CD1C
BD91F0C3
BC00D8D8
3E5A2489
3D5614E0
BD2CFA6A
3C8B3B32
3D5E3433
3E7F583A
3EEDE3FC
3E5A415F
3D60A201
BDA917D7
BC922FAD
3CF7AF64
3E09C4DB
3BCF91A3
BD0C0F02
BC9799E5
BD8B3355
3CAC7326
BC3B1F25
BD044AE8
BE07BDCF
BE041B33
BDB96BFD
BD836A83
BD520C07
3CDB4678
BD8C94B4
BBD91C66
3C829069
3D51A112
BDBD0BFA
BC2411C3
3C9ADEA9
BDDB4784
3D82F6A5
3E219653
3E0C73AC
3DA05F6C
BDEA1B5C
BCDBEE3D
BDA3BABA
BCCA0C28
3DC860DD
3DD1E109
3D1ADFB5
BD95CE18
BD1ABF34
3CD30CED
3C7F4BA5
3CA647FE
3D876A72
3C9450F0
3D01EBC8
3D86AFCD
BBC51F59
3CE28672
BB9AE84E
BD751266
BBA2679E
3D4A2446
3DB98BF8
3C85985B
BCBB9CFA
3CF5C8DA
3DC5564B
3D871045
3E2BB6ED
3D28B8F1
3C6321A3
BD443B2E
3D3E21D9
3D60BF5D
3E04840E
3CBEA4EC
3D49613D
BA29CD18
3CAD6A9C
3D035EFA
BD21B08A
BD24C0DF
3CBAE03B
3D888DF3
3CD2E947
3C161CA2
BD68F4B6
3B477575
BD85C4EB
BD885122
BD3660E5
BCA8D435
3BF88FC9
BC50E12F
BC59A0F1
BD6C02F3
BC29B8CC
BC813661
3D9CF701
BD1045FE
3B58C452
3DBC6F37
3D1F6018
BD47AF21
3D01A8AC
3D16F651
3D7BADC1
3D107D91
3CDDB552
3DAF038E
3E18A86D
3E0CE9A3
3C8997C4
3D0E8FB0
3C90E66D
B9DED131
3DC64BA9
3E0A1B5C
3D2F2A5A
3D280496
BD40F883
BDD436B9
BD74E54F
BDC1437C
BD7CC294
3D63C537
3C3DDFCA
3D3C8F32
BD340810
BD06AD2E
3D4FF002
3D163455
3DAA033E
B90FFADF
3CA5C5F8
BD748E47
BE23BCD3
BE30D068
3CBB83CF
3D0C953A
3D50A783
3D4BD76F
BD82F406
BBDE5810
3CB8A3B5
3E0692F7
3D273A36
3C9B2A28
3D092EE8
BDD2F6E8
3E572713
3E76DDAD
3DF47842
3CC5AA2E
3C74F0D8
3D24AF0C
3D4EA4A9
3D01D7DC
3E1AD18D
3AEC7432
3C736263
3C950FC7
3E149CF5
3DACC921
BDE86834
BE1E186A
3C76598E
BAE22A2C
3C584902
3CBB44E5
BE0132B5
BDA6DEFC
BD275148
BC1ABD86
3D7F27FE
3AD60A63
BCB08356
BD56E7A3
BAE8F44B
3CCEFAA4
3C087585
3C9F40A3
BD34916D
BCBC1052
3DFF1412
3DC83DBC
3C942917
BDAA83B2
BD162BF1
BB578C43
BD4BDFD2
3D59A62F
3D05ED4A
BD8522EA
BE0DC098
BD33D3A2
3C4AA327
3CF9D6F1
BD7DE0D6
BDC5CDD5
39B74A85
3D54DB59
3D9E0158
BCF7BBF9
3B8E5D25
3D901D19
BCD5E6BC
BD95A31A
3D061954
3DA281BA
3D66D8B2
3D1FE75C
BCEDE54B
3D96C15D
3DAC6717
3D634A88
3BB3C66C
3DAA90CD
3D4F6167
3C72D3C8
3DAB8CFC
3DD8548B
3CFEC786
BBD16690
BCB01648
BD86BE7B
BD038C11
BDC604E2
BD004428
39BB6978
BC459B80
BAB109F9
BD6BC515
3D4BA94C
3C3F65DC
BCC18B50
3C262ED3
3C433B54
BD598BF8
3C70D413
BD261BF3
3D9FB939
3DC8D4BB
BC6ABBCB
3CBBB624
3CEA8113
BD2DB50F
BD111BE7
3D549F95
3D8F1023
BCC4A1F1
3CB43B71
3D47075B
3CE6FB4C
BCE25205
3BF7B0A6
BD9DDB12
BB71F073
3C9C6D1E
3CF17DF2
3BF3ADE2
BB2C7DA2
3D25B63D
3DE1AB4B
3D037D63
3D12F2B6
3DA7C06E
3D1A500D
BD1013A9
3D4012E0
BD2FA0D7
BD3C8D19
3CFCB70B
BC84AD79
3CE59F2C
BB7CFB69
3C3C5155
BD7E9B7C
BCD3CDDD
3C8AB2E1
3B856BE5
3C9D840A
BD2410B6
3C76F4BF
BCE277C4
BD4B06C4
BCC6C97E
BCEC4E72
3CAD70E7
BD00BED7
BD1EADD6
BCD204B0
BD369446
3C98AEB8
3D5FB1E2
3D1B8130
BD6F8DF8
3D4E28ED
BC63DA30
BCB1B79E
3DC87A07
3D92ECF2
3CD30CED
BCE327EE
3D14E2B0
3CD9A954
3E00C1FD
3D905187
3DE69058
3D802C91
3D0691EA
3CD4BF0A
3DA12A52
3E151D69
3C1FACD9
3CF62B6B
BD1490E6
BDC41E58
BCC32CA5
BE033483
3A22C08A
BD0BF4CB
BD6FB5D0
BC80A17B
BD6BF445
BD69B9D8
3D678D0D
BC9B1FAC
BD37EA1C
BCD96A6A
BD5C7FFE
BCAF89C6
3DB06EE3
3CDFA872
3C91F0C3
3D0D21BC
3BF94D5E
BDB8FB44
3E104FF4
3E578034
3DA43CC0
BD61943A
3D1EF630
BD926289
BD98B589
3E02E33F
3E4B8F9B
3D9EA811
BC1D03B1
BCCCD0FF
BD5F98B7
BDA34A02
BC6703B0
BCDEA034
BD92220C
3D5AB6D0
BB4AA682
BD3B3850
BD34256C
BDEDD591
BD97878B
BDC1858C
3D01BC99
3D24B76F
3D344A1F
3CD4BCF1
BD8A5ACD
3D1422CD
3DA76102
3D7E1976
BD01BFBE
3B304253
BDF8C543
BDE53B8E
BDD6EAC8
BD2C02F3
3B0F15B2
3C83AFB8
BCD9F905
BD738716
3D1A1017
3DEBB98C
3DED9168
3DC4ECEA
3D234EBA
3DF6D331
3D3B0A2D
BD1728A6
3E0D81AE
3E181D7E
3DBE41D5
BC945953
3CA97E13
BDBF3ADE
3DA15A08
3E4132B5
BC9D5E4A
BC2FBC1B
BBE766AC
BDACDFAD
BD818C5D
BD663843
3C8FF972
BDBE2CDC
BD2D59D5
3D2C40D1
3D7EA2D3
3DD47065
BDA4E400
BD9AA79C
3D660E52
3C4B295F
BBF444E1
3CF2F556
BC980B24
BD65FFA4
BB7B0E29
3D7DDDB1
BC3BD380
3AC0668D
BA983A1E
BD3190D1
BD30AF60
3D207C42
3D8492BC
BDA75CD1
3E157BC8
3D3CF2D0
3D8368F1
3DF64AE0
3D42F512
3CE66666
BD2A25D9
3D8AC29C
3D821294
3CE4BEC6
3E057FB7
3E6641B3
BC26D699
BBBDE3FC
3D8ACF31
BD983DFF
BDD681ED
BCF8DD61
BCACECC8
3C03EE37
3D4CA2DB
3BA7404B
BE067DFE
BD573648
3D8B04AB
BB883EFE
3D5845DD
3DFFE5C9
3D79E8C4
BB25C44A
3CB24639
3D8DDACF
BB2431A3
3B39B746
3CEDFE76
3D9384FD
3DDA9A80
3CC60243
3CFAF859
3C7290AC
BCB26BF8
BCCE0DAA
BD2A4767
3D000DA2
BBE185C1
BD397BB7
BC9053A0
BDBD6F97
BC889C1B
3DD2C27A
3D0EAE19
BD1EE675
BDE7EA60
BD0EBAAE
BCC3419E
3C3CDBBE
3D8799A2
3B4D63CC
BCD970B5
3D2B5914
3DCED917
3DF7B4A2
BDEEC6BD
3D5C4007
3D82E771
BCC5D207
BD30D413
3D7AE9AB
3DD7689D
3B856E69
3CEFB6DD
BB95F16E
3DC2D6AA
3DB43958
BC36A1E8
3D31B36C
3DF0F27C
BC0EC164
BBC197E5
3C531B9B
BD80D90E
3ADDF513
3CDA9004
BD6D0E56
3D4711D8
BC4E13F5
3CE20EE9
3D15AE1D
3C7811F5
BE138716
BD757D5B
3C8CA81A
3BC82E02
3BE5796C
BDC0A30E
BDF0F27C
3D23D70A
BB58B1DD
3D8D594F
3CBE9425
BDDD4413
BDB66B61
BB382B55
3CCADBC6
3C39346A
3D1DB984
BC38F9B1
BCA21EA3
BDE5D399
BD9862B2
3E302B41
3D69DB66
BC0C1C6E
3D2FA616
3C452A41
3E0B2BFE
3DF866E4
3E69057D
3D67C6B9
BD5F6018
3AF6314A
3E4D6239
BD4D338F
3D725F63
BD0CCFF2
BC801B43
3D813EC4
BA6637AD
3D526A66
BCE2E4D2
BCB93CCD
BD8D0A24
BC69424E
3C150764
BD942FE8
BDAB1E5C
BE11FB40
BDCC57E2
BDAA98AB
BC5423D9
BD30E4DA
3C68FB01
3CB7E910
BC74623D
BD91B930
BD7B9171
BD90D951
3E072863
3D835611
3D2EA0FD
3CE08AF0
3D4EFBB1
BC9888F8
BD019B0B
3D971434
3C2D31FD
3D420F6F
3D0AB713
3D3250B5
BDA6D2ED
BDAE3151
3C309E99
3CE0E94F
BD905532
3C3D48CB
BC56733F
3AB205A1
3C993709
BD494C44
BD5703F3
BD1170D6
BD414D72
BD2806AF
3E083E42
3DDCAC08
BC9437C5
BDBB4DCF
BDB7763E
BD8E618D
BCF1D81F
3CD903A7
3D3E0158
3D282D7B
3DC0DD40
BC01EEEE
3D00A8D2
3D72580C
3C896BBA
BD5E1F3A
BBE231B9
BDA16F87
BC626916
3B02CBF8
BDB3C925
BD4D36B5
BD823316
BD85F9DF
3D882BE9
3C8A936C
BD9F7E80
BD95AB7E
BD4286F9
3D7A5D29
3D220EE9
BC9053A0
3B7FEB07
3D6BE9C9
3DC14C66
3DD77319
BBE523DC
3BFE4291
3D20285F
3CEB2D0A
BD9D29DC
3C85F6BA
3D1C779A
BD5D9C28
BD443915
3D2DF506
3D00357A
3D3DA72A
3C8C1DB0
BC5816AD
3BAA2AE1
3A890929
3BB4EDB3
BDA9C0A9
BC32BFDB
3D0E3EF3
3BCE2592
BBD3A52E
BCA2962D
3D92BFDB
3CD2A62B
3D905C03
3D434D27
BD4DFCE3
BD0C79F6
3C745E0B
3C99B6F6
3CDD462C
BD3CC3A0
BD9A1A0D
3B5B819B
3CB40B35
3DBB8FDE
3E07357E
3C42224F
BCDEDAEC
BD70FADF
BD2AEAFB
BD58E432
3DDEB314
3D0E93E2
BD8B0D0F
BD3E6F72
BD34B513
3CE6C8F7
BD5F969E
3D8795F6
3D4DA1A9
BCCFB763
BDD657FB
3D9B2357
3E0BD902
3E089CA2
BCFCFE58
BC578C43
3D861D00
3D0333FD
3D69D302
3D575C07
3D997DD0
3D2260B3
BC7C9BC7
BD7C200C
3C05ED80
BD418E75
BC0A2157
BB9CC8F9
3CCB07D1
BD0ECD8E
3C0E12E8
BCD76CCE
BD780347
BDD2599F
BDB29995
BD0ED1BF
BDC2E664
BD86F502
3D747410
BCE9DB66
BD8873BD
BC5C2B0F
BC855758
BDB69A0B
BD7C126A
3E2BDBA1
3E6F5C29
3E1D8D7A
3CC52828
BDF5E743
BE91D14E
BD72DA12
3E22FAD7
3E00125A
3D975EA6
BCDFCE31
3C19EF2A
BDC58149
3CF7B9E0
3DD797CC
3DB0984E
BBF7347F
BC968F8E
BD8A044B
3E0941C8
3E0E0C9E
3C5477BC
BD88882F
BD6ACA79
3C72C301
BD18969A
3E5729B3
3DF775B8
3D9FDA40
BD07DB2B
3B542DEA
BDEE0F3D
BB48AD83
3DA9ACBD
3C4219EB
BC72495E
3D5D67BA
3DB10A13
BDDF01B8
BD5798D9
BDF4C6E7
BDD3FD0D
BCDC2092
BD16A37B
BD919A41
BD8BA5A0
BD685122
BDC1700D
BDFC2B95
3DC4B018
3DD935FC
3D7DD441
3E0DED29
BDA29F17
BE53111F
BDDC62A2
BB35766F
3E0F66A5
3E4BFDB5
3DA4CD75
BDA53C15
BD788228
3E10385C
3E1B328B
3D7E0BD4
BD81FAFD
B93229DE
BC8C692F
3E88E4B8
3EAEA0BA
3D2F5126
BCB994E2
BD3EA3DF
BD445671
3CF2B66B
3DD729B3
3E097397
BD013CAC
3D09CB25
BCEBA062
BCA749F1
BDB028A2
3D4C2614
3D073797
38D679CA
3C820818
3D215DB3
BD2DD7AA
BD00B999
3D8383AE
3DA05BC0
3CA6A444
3DA20E63
3D856712
3C03F706
3DD83516
3D775105
BA3E40EE
3B19B1ED
BD5FEFBF
BDABC0E4
BD523811
3D5719F8
3D9044F2
3CBB7953
3DA61BF3
3D6391D5
3D1C0A8D
3C9B584B
BC8E8859
BD4576CD
BDC2F8BE
3C993D53
3CD32618
3D272C95
BD0C9C91
3C496463
BD77AE58
3D1E9186
BD5B9A5B
3CE2717A
3D97F280
3BC71E37
3D8FAACE
3D97BC7F
3DA3AA7A
3D71971C
BD3D20F3
BE062A1B
BD97F62B
3C2AF790
BC1D0199
3CD99AA6
3D77B070
BD885A0C
BE009D49
BE0708EE
BD1BB59E
3CCFB54A
BCE3E6C5
3D116EBD
BB00F2DA
39316DF7
BD2D1F1D
3D90ECB7
BC0A265F
3D06583F
BC5349BF
BCB213E4
3C05DAA0
3C1EF523
3D9AC040
3D8CCB3A
BCB9170D
3CA97E13
3D196745
3D957A35
3BE747A2
3CDCDD51
3D254E6E
3CC52828
BDA02AFE
BD882279
BD0A2446
3CD4A3C6
3B23D55D
BB6A92B0
3D4430B1
3C37D417
3CB0BBF5
3D43D684
BC836439
3C50AEDA
BD052503
3CBDEC5F
BD05BE1B
3913609A
3D12D667
BE29B281
3D53660E
BC5DCE7D
3CF0E2C1
BD25B74A
BD44A516
BB201762
3D696F65
BC93BE23
BCD716D3
BC538CDA
BC715A4B
3BE028CA
BD88AD69
3CB5E52A
3CC9FB61
3DAECAEF
BD0126A6
3BDEBBE3
3E11CC10
3E1D1CC1
BDD88E37
BD0D20B0
BB8C0CE9
BE025AEE
3D010731
3BD54F52
3C08567B
BDA6B2F2
BBC8414D
3C340F67
3DBE1F3A
3E511F0C
BE115DF6
BD237CDD
BDDA07B3
3D7CF1C3
3D5B4352
3DFA58F7
BCE43676
3BA85E58
3DA77681
BD8EC850
3CC4D445
BD12B3CC
BDC5B7D0
BDB28AE7
3C90F734
3E16C0D7
3D875819
BC975297
BB5F5F77
BD6DDACF
BD75E95B
BB6B7889
BC8D3CFF
BD6A5D6C
BCA05BC0
3BD636D9
3B39D21E
BC794424
3C4B9ECF
BC846413
3CB2EDFE
3D97C6FC
3DC1CA3A
39D2806B
3BE34839
3D57D5AA
BCA66FD6
BCB52652
3C91537A
3DC61284
3BF8E051
3C6D5F14
BC86E5CD
3AF6A6BB
3CE4E8B8
3D8C4828
BD40841F
3CA7A205
BD875AB8
BD35D9A1
3DA9A565
3D7DF5CF
BD45CDD5
BC8420F7
BD02EFD4
BDB0F6AD
BD037F7C
3DAB1FEF
BCEB0963
BADFD4E7
3C69424E
BADAF153
3D17268D
BCD2A62B
BD104C49
BC92C493
3C9D1D47
BA4C37D1
3D665387
3D6E1156
3D774BC7
BD5D883C
BD338A3B
BC9B0EE5
3CDC4C9D
3D2B4741
3D62D83C
3D0E1501
BD00BED7
3CB88CA4
BD5CEE18
3C93CCD1
3D203D57
BBB768B7
BCAF31B1
BB0C0E97
3BD9F326
3D007571
3C2D57BC
BC53D85A
3DB26AEC
3C09E4F1
3D99170D
BC647560
3D49FD7A
3BE6545D
BC44CDFB
3DD3DD98
BDA814D7
3C78C21E
3CA5B74A
BA80B3C5
BCFF92F3
3C57B203
BC0060E3
3C778FEF
3D6AD602
3DA78C87
3C606D94
BC81626B
BD865F96
3D1C1D6D
3CEADF72
BB3B6D29
BD0FF972
BD5D1F60
3AF004E0
BC21E52D
BBBACA6C
BD1B573F
BD8CF8D7
BDA99A63
3B89F83C
3C804B7F
BD07FBAD
BD54727E
BCB0574B
3D2B66B6
3D38FCD6
3D73B42D
3D9DFCA0
3D47C201
BD58DBCF
3CD89EFE
3C671CDA
3AAEFB2B
3DC23183
B986B089
BD01B64E
3D6469D7
3D266ECA
3D4C6C55
3CCEBBBA
BB27447D
BD67C287
BD10D5A6
BDDA6B51
BDBAE3E7
3CDED8D3
3C69B7BF
3C0B9F70
BDA00B89
3D1AD42C
BA5E027F
3D2A0232
3DB63BAC
BD6B4D8C
BCAE1EF7
3C22C7AB
3D2E2867
BC96BFCB
3D2DBE7F
BC5F8B15
BE15F45E
3D1A7B0B
BC420924
3CF99E52
3D4D1527
BCBF9618
BCFD1783
3C159C49
BD37EC35
BC3AA9B5
3D15BAB2
3DE469D7
3D0B3F64
BD3810E9
BC9ECB32
BCF2F987
BD7F8EC1
3D5C6089
3C466905
3C309E99
3D8B40F6
3C595140
BD1F45E1
BE30C88A
3C206566
BAB592F4
BD28FB01
BD383DFF
BC83D578
BCDB6A1F
3D0AF923
3E2CCCCD
BBCD9041
BD96C376
3BC32584
3DD0A676
3C6075F7
3E384F4C
3E1822BC
BCCE075F
BCA9BF16
3CCE5B42
3CB48D3B
BD96CA47
3CF3CF70
BA7CA024
3C62DE87
3D42ABAC
3C2E4F33
B95991AC
3BA52EF9
BCE63C75
BD471716
BD581ADF
3C77B17D
BD9274E2
BDC0D888
3B532683
BD917A46
BBDBDA87
3E194079
3D83A10A
3D39CA5C
3C150622
BBC58E14
BCF4C900
3C940358
3DBB1961
3C390A78
BD5ED5AE
BCE05250
BD76DEB9
BE6872B0
BDB001D6
3C1AF11D
3D8C508B
3A19C563
3C99D66B
BD721922
3D57AEDE
3E98F9B1
3E378812
BD4D8666
BDA576CD
BB07EDA0
BC111F0C
3E87D955
3EAC01A3
3DC5E786
3D18CE2D
3DDDF117
BC23CCF9
BC067565
BCB3B107
BDE28CBD
BD54B59A
3DB1886E
3CD8127B
BD07EBF2
BDB1244A
BA388949
BDA56606
BBA59550
BC8240B8
BCC0F66A
BDDE4A38
3CF6BA06
BDCF1801
3CFC5261
BCC46951
BD99EADD
BDC0DED3
BDCD551D
3AAA1796
BC8DA3C2
3C54801F
3D68826B
BC90C910
BCFDBF48
BDB5592E
BDBA3B15
BD57E671
BD58C6D6
3E064990
3DFDD97F
BCB369BA
3DC5EC3E
BD0D0BB7
BDC7192F
BDEE5DE1
BC717375
BCF84018
BDA6DBD7
3D46FEF8
BBEFFBA6
BC2D14A1
3C66D9BE
BD14024B
BD1F9054
BCFFE4BD
3E23C750
3D2C54BD
BC7FFBCE
3D62EC29
3DF76B3C
3C90CB29
3DD4317B
3D781627
3D36C26A
BD62C237
BC0DC40E
3CABF76A
BCF225B7
3ADF0B94
BCB6A61A
3D04039B
BD6C7326
3CA23E18
3D8C8ABD
BC6EE0F4
BD9CE421
BDBD8516
3C8780FE
BBA9F531
BD4F3238
BC323140
3CFFC760
3D37BE12
BD4E23AF
BCF00043
BCF2C519
BDE60807
3D76F9FD
BD7F3CF7
BD8F98FA
3DA8F649
3C9C8EAC
BD303C08
BD7DA61E
3D2F6E83
BD3F0CBB
BE3028A2
3DD76DDB
3C5DA8BD
BCA3A084
BCCB8173
3E00B242
BD22046C
3D8B430F
3DD52D23
3E02F838
3DAF77F2
3D8DFDF0
39A14966
BDF7F8CB
3D51B717
3D5802C1
3BAC0908
BCA00193
3D445996
BB803976
BDB043E5
BE09CA19
3CD16DB1
BD1E3865
BD00ABF7
BCFFA1A1
BC39CF9A
BD39CF9A
BADD9A7A
BDC78748
BCB37868
3D811905
3C75A101
3CAC6046
3D96F3B2
3E484DFD
3D9A6B51
BDD172EF
3DE7CAEA
BD86F827
3DA06530
3E181840
3E1136A4
3DA2AFDE
BBB12176
3D34BD77
3D866F50
3E7BADC1
3D5003EF
BC9001D6
3D0B5CC0
3D99D3CC
3CD19BD4
3C853E2D
3E071609
3D99C411
3D9FDAC7
3C634763
3D36F2A6
BB0BB250
3CBDB1A7
3D5FAA8B
BDAFC71D
BD84E054
3BD8028B
BC09CFF8
3D26DBD7
3C191362
3D8C1FC9
BD8B862B
BC225CB7
BC1478C8
BBBF11F9
BD9E9EA1
3D21DDA0
BB1226DF
BDCD6A16
BCA7BB30
BDA95747
BCA2A0A9
3DA30B9E
3D97B9E0
3D2DD69D
3CB37C9A
3CB868FD
3C2B3EDE
3BAEB80F
3BC7D948
3C9BB491
3DA3076C
BD1885D3
3B17FA5D
3D50A351
BCE29739
BC9BD1EE
BD3A658C
BA74369E
BDB333B9
BD46AB15
3D28D64D
BACAE99E
BC57342F
3D42AA9F
BD079C41
BDC6FBD2
BD9D8623
3D150870
3CBFF25E
3CF62D84
39B49E02
3D3BC6EB
BC582774
3DD55C53
3C82E01A
3D7F993D
3D37AA26
BCD3FC01
BCFD1DCD
BD7B3D8E
3B8888D0
3D4E8A72
3D15BCCB
BC258B3F
BD292E62
BD15CE9E
BB900094
3D829F9D
BD1F0D41
BD05E6FF
BDF43E96
BCF49492
3D76837F
BB69ACD7
3C51DCD7
BD2A9A3D
3C91F0C3
BAC0DF59
3D1ED17C
3D4BF099
3DCF80DC
3D02DF0D
BC1ACF8F
3C91D580
3D333CA3
BC80C309
3D0B630B
3CB9FFD6
BD86D9BE
3CB139C9
3D5C4A84
3D8645E5
BDA0FB22
3DD8D79D
BCED19DF
BD9CDB38
3CB59792
3D5F7510
3DF4F0D8
3DBD60E9
3D8D551D
BDBD9FD3
3D9AE925
3D09906D
3B908CAB
3CF50A03
3D3B2357
BD04CF07
3DCAB4FA
BD8ABEF0
BC75A533
BCCCF4A5
BD5930BE
BCFD9DBB
3D0A2878
3BC3067A
BD1AC9B0
BCDADB83
BD85ED4A
3D468BA0
3C88A8B1
BDC75CD1
3C00EFEA
3C791A33
3BF47304
BC566ADB
3C8CA601
BDE5460B
BD2A1E82
BD269BE1
BCE43AA8
3D69AB2A
BCA6D480
BC836EB5
BD12D235
BC3A9D1F
BDD1E109
BDD11F0C
3CB6BF44
3DAB90A8
3B500135
BBCDC875
3DC4A05E
BD7FEC14
3C75A101
3DFDA512
3C90A783
3D09539C
3D148A9C
BD9422CD
BD3F7165
3D9769A9
3D2C9082
3D5287C2
3D8B19A4
BD801EEF
BB7697A1
BD9E80BF
BD8B60F2
BCEF416C
BC455433
3D92DE44
BA6B4182
3C2875D5
BD2CA149
3CD794A7
3D10F0E9
3CB4D6A1
BDED9BE5
BE9227D0
3C96BDB2
3D22D517
3DAF3B21
3CBF61AA
3D523E5C
BE6EF88C
BD426CC2
BBD391E3
3CB6390D
BC330B5B
BCCB35F4
3D5553EF
BE3E108C
3D723EE2
3DC1D6D0
3DD081C3
BDD9018E
3C89FC6E
3C80BCBE
BE050C5F
3C1D125F
3D763800
BDF3BB84
BDD0A676
3C1E4DC9
3D508701
BCDBC01A
3DCB356E
3CFF0CBB
BDA59B80
BDC7AAEF
3C829AE5
3AF27858
3B207F67
3D94CE3E
3D5A3E3A
3BE156C8
BB2591F5
3D6C96CC
BC8999DD
3D22AE4B
3B03CAFB
BBA3E11B
3C90624E
3B7CCC6F
3D03DFF4
3CA2424A
BD422EE4
BE8DC9C5
3D757B42
3C4D0BB7
BBF6D4DE
3CBC1483
3B9BE5A4
BE1BCFD5
BD2686E8
BD26B0D9
3E0E703B
BD4D2D45
BCF7963A
3C987400
BDD65D3A
3E01EA36
3D8CFFA8
3DDF45E1
BC2A79BC
BD6B5A21
3CBD9A95
BE18D79D
3DCC4BD3
3DC80171
3D6962D0
BE4F66A5
BCA606FB
3CCD0FE9
3E166A55
3E227525
3CA75686
BD2DE43F
BDB090F7
BD8218DF
3CC801F7
3DC2699C
3D8E1933
BD6E3A3B
BCA2AF57
3C60114D
3C933A04
BD056B44
BCEE2C99
3C2A92E6
BE289763
BD7D6734
BDCB73D2
3D1A554C
3C00C58D
3C90D7BF
BD24F54D
3D4BC59C
BCD76252
BD7C30D3
BDCF7660
3CB8FBCA
3C41A8AC
BBEC57AD
3DED6CB5
3D96030C
3C0FBCA1
BD995CC8
3CAEB3DD
BDBF82B2
BDA4AADA
3D2ABBCB
3B8B1CFF
3D25C5F8
389BF3DE
BDF16B12
BD431BDF
BD4E0C9E
3C70ED3E
BD2C98E5
3AD0CC36
BD7779EA
3B995B86
BD30AF60
3D41D29E
BD0EC52A
BD0E8EA4
BC90B1FF
BDAEC637
3DB0ABB4
3DEDDACF
3D8C1CA4
3DB457C1
3D6260B3
BC4F7447
BB805B04
BC82491B
BD0F0414
3D32873C
BCFA4830
BDC801F7
BCD26741
BD8D66F1
BD092791
3D4C111B
3CAF4ADC
3CCBD76F
3CAD85E0
BCBBA98F
BDDB4CC2
3DEC4C59
3D5D80E5
BC6F459E
BCA9DC72
3D4900C5
3D6B26C0
BD886488
3DA76102
BD59B5E9
BD95F45E
3D3660E5
3DAEBB34
3D9629D8
BE12CA58
BDCD898B
BBE1099B
3D42235B
BB45A30D
BCDB0BBF
BB9BD68B
BDB31338
BB91E7F4
3DAA832C
3C2C2DF1
3CB7A3DB
BD4851A8
BCF43A64
BBF208C6
3D5C4439
3CFF609E
3D1235F8
3DA4D76B
3DAAF46B
3DCA4B99
BD6BE8BC
BC07654F
BBEBF07F
3DBC768E
BC70B6B7
BC278F26
BC020D20
3D149B63
3C854CDB
3D93E921
3CDA9867
BCD666AA
BDF3ABC9
BDFBE76D
BB12FD9E
3D2CEBBC
BC1E6EEB
BD8F5D35
BDF01B86
BD656EF0
BDB67D35
BC0FB1B9
BD75CF25
3CDE1199
BDA19008
3E07CD8A
3D9CA5BE
3DFA29C7
3C809F62
3C31D4FA
3CD8E219
3C186918
BCD03FB3
3D0DDA49
3CA51C19
3D6452C6
3E026AA9
3D994E1A
BBAD5BEE
BD99E6AC
3BE42AB7
3C638A7E
BD2D612C
3D33471F
BAA73564
3D4C6717
3D9E7211
3DBE7C07
BD827525
3D13404F
BD524BFD
BD3FEF39
3B7578BE
3D37878B
BD2A0DBB
BBA747D8
3CA7DCBE
3CA3F898
3C09DA09
3D986552
3D80E27E
3C89A027
BC9A21EA
BD169B17
3D83B9AE
3DE262CC
BCA5E13B
3D4D7ADD
3D068FD2
3C24D6E4
BE12085B
3D174928
BD7E3D1D
3C7487FD
3DAE6A77
3CB28F9F
3CC727DD
BBE78FC7
BD2C3654
BD110A13
BD9AD3A6
BCD1EFB7
BC0190FA
3D76ED67
BDA29E90
3C279789
BD304EE8
BD6938DE
3D08216C
BC614BE0
BD8E3C53
BCA30553
3D3EB7CC
3CA23C00
BCA36E2F
3C548883
3D92B12D
3CDBAF53
3CB499D0
3D3A8501
BD092578
BCE0C5A8
BBA8FF68
BD820924
BDB988D3
3D0D6F54
BC99F3C7
BD9F4BA5
BBAFCF66
3C8270F4
BD71D3ED
BBAE741C
3CD69B17
BC94898F
3C6A63B7
3D3C73EF
3CA222D5
3D8FC47E
3C10D753
3CE2BAE0
3D47A6BD
3D0126A6
BD9B1290
BBBFE487
3DC51548
3D595897
BD67D135
3CDEF630
BD26234B
BCC49BA6
3D58E432
3C27589F
BC921038
BD063172
3CFC5261
3CA085B2
BC980D3D
BD87C30D
BCB31C22
BC7DBD30
BD003793
BBCBCEA0
3D364170
3D21D649
3DB4573A
3D75AFB0
3D77EA1C
BD315D70
3BE4EBA8
BC6E0F3D
3D1C52E7
BC09FB97
BD6A465A
BD9F7404
BC9F5BE6
3C94E3BD
3DAF7A92
3D96EEFA
3DA22574
3C93B7D8
BDCDBDF9
BDF3E575
3DEA8EB4
3C2C0831
BBD14FE9
3AABDFED
BBC3C694
BC326395
BD5C39BD
BAB72FAD
BC9DFFC5
BD335D25
3D0486AD
3D143394
3D98C7E3
BDEB020C
BDE7FA1A
BD9AAE6D
3CCD8BA4
3D79756D
BCB8A19D
BD82F6A5
BCEDD8B6
BCC64778
BCC1DB01
3C4E39B4
BB9E096B
BC69E1B1
BD9CBA30
BD2807BC
3DEC6690
BB9CA410
BD1CBAB6
3D0C09C4
3CB27675
3DDB328B
BD65B963
BCDFAEBC
BD53F078
BD33DD12
3B6D981E
BD825A68
3C21412E
BD50F840
BD24D3BF
BD91B585
BE753F7D
BE7FCE31
3CDF0B28
3C2AA3AD
BCD2B4D9
BCF548ED
BE705FAF
BE13C361
BE1F01B8
3DAA21A7
3DFDFE33
BC04D918
BD009F62
BC6EDCC2
3D55EE13
3DA6FC59
3C3573EB
BC5F223A
BDA53EB4
3CCC0160
3DEE4E27
3E1FB939
3C9D96EA
BB2ED2E7
3CCB9A9E
3CE60A20
3C6ED890
3E51A9FC
3E20B780
3DE12839
3CB18DAC
3D82F6A5
3D022CCB
3CD6F32C
3DFD8ADB
3CF2DC2B
3DB2074F
3C996B76
3C09FF5D
3AB2BE2E
3CDFFC54
3D2C54BD
BE00053E
BC4753E7
BD6CF851
BD82F61F
3D0C4AC7
BD694467
BE014270
BE95D639
BE333333
BD5DCA4B
BD81A0CF
3C9C219F
BD93C03C
BE3DB22D
BE01259A
BDBACBC9
3DD35FC4
3E10E2C1
3E1249E4
BC973322
BCCA57A8
3E1765FE
3C3CF0B7
3DC20E63
3DB71B04
3D1B0037
3DBD0B74
3E134ACB
3E63736D
3E503AFB
BC2CD185
3D23AF32
BCA9B281
BC8811B2
3DC5D074
3E1D5BAB
3C408312
3D0E1B4C
3A522277
BD884C6A
BC28D64D
3D28E821
3D516A8C
3D93E143
3D12FF4C
3C577B7C
3B78BC3F
3C913837
3C56A162
3D93FB7A
BC18C2DA
3D7C0D2C
3D9F5276
3B73958E
3C8C47A1
3D8D9B5F
3E081451
3D25F0F6
3C89656F
BCC02D17
3DCE7AB7
3CC26BB5
3D423748
3DAD03DA
3C992A73
BD24D7F1
BCDE4606
BDE0E94F
3DB945B7
3BA70A9B
BC3A6267
3CB7EB29
3D010518
3CCDE5D2
BD320EA6
3D3AC2DF
BB0D576C
BDA07358
BBB832E2
3CBEF49D
3C02B262
3CAC5C14
3CF24745
3CCC7086
3D0E3FFF
3B912B36
3D2160D9
3CBDE615
3D42730C
3D951ACA
3DD8548B
3C97F62B
3CE47779
3DA09F62
BB46A8C6
3A846C0B
BC87EE0B
BD44B902
3D5D8A55
3D73DE1E
3DD40CC8
3D5A1EC5
3D458687
BDA1CDE6
3D60A0F5
3D42C7FC
3D05E6FF
3D540464
3D392E1F
BD82FC69
BBC2E0BB
3D09A997
3D17ECBB
BDB3E2D6
BDA5B4AB
BCF177A7
3CBE24FF
BAD52CEE
3C2E07E6
BDD28E0D
BC26A012
BD5DD3BB
BC266128
BD5A0382
BCC7368B
BBB0AB2E
BDB62414
BC8635A4
3D8FA509
3D51F601
BD12DA98
BC90A99B
3D44FB12
3D536827
3D5DCF89
3CCFC82A
BCB78EE3
BCA03819
3D6B3DD1
3D244849
BD5A4CE8
BD87296F
BD9A9542
BD94B168
BD25C704
BCC6DC5D
3D512DBA
3E1D6B66
3D76EF80
3CBD6A59
3D0F3669
BD364F12
3C30813D
3BDEB888
3DAC5B8E
BD22877F
BD8BB3C8
BD75C7CE
BD717DF2
3D369A91
BD3DA72A
BDB9D0A6
BE3BF9C6
BE261F9F
BDE83E42
BCE9F6A9
3B36F199
BE0B851F
BE594318
BE074A77
BD7C408E
39281634
BD82FD76
3D1347A6
BD12007E
3C458256
3D6CB967
3D7BCC29
BD4A2878
BBAD3E92
3DB1611C
3D87E415
3D229E90
3D0626F6
BD11E53B
BD8FFFBD
BD2F9011
BCFBE985
BCB54196
BDAFC611
BDC325D5
3CA17F41
3C29717E
3D1B1A6D
3C97A249
BD3B6241
3DCAD57C
3CD8AFC4
3CD78E5C
3BBFEDC1
BCFAB325
BD890258
3C95A6C6
3D678D0D
BCBCD35B
3D19A1FD
3D022EE4
3D68D435
3B696306
3C63F78C
3B81D1FD
BD1600F3
BD0F6274
BCA84168
BD8636B1
3C493A71
BD682731
BD46B160
BBB937C5
3D6F06B3
3C8ABF77
BD32873C
3B8D3AE7
BC128325
B9597C33
BB2639BB
3CB660E5
3C279FED
BB4EFED6
3D8687F4
3DA815E4
3D3F401C
3D2EA20A
3C1A0E34
3D8096FF
3D850721
3D56D19E
3D9D701E
3DC1ACDE
3CF3B214
3BD6BEBE
BD151F82
3D462E4D
BB8CAA9E
3B811615
BD7996FB
BC804FB1
3DDCA6CA
3BDCA07F
3B433B54
3B060DCC
3D4E1501
3DCDF267
3DC54A3C
38F5A3B1
3CAEB3DD
BD99DDC2
BDA0C49C
3DBEE4E2
BC461523
BCABC515
BD835BD5
BD859D99
BDC87C20
3D03C9EF
3C9C219F
BD950332
BD6DD591
3D8A9153
3D834656
3BBAAEBD
BD3280F1
BD80F2BF
BDD92642
BDB10ECB
3D8C13BA
3D920FB2
BC4093D9
3D5842B7
3D27B0B4
3CA15337
3C4DEA03
3C931A8F
3D997CC4
3DC23960
3D4270F4
3D8BDF4C
3D9A1B19
3C6BE9C9
3B6D4797
BC3E22E6
3D1815A0
BD3C9DE0
BCB8CFC0
3D88B978
3DA70FBF
3D381E8A
3CB9FBA4
3D8E568A
3C5106EE
3D8D7732
3D8E557E
3D70D845
3B91D3D2
3D8986FD
BD6BC622
3D1CCFAF
3D464DC2
BDA3C105
BD4114D3
BD17F62B
BD24473D
BD333CA3
3CB34E77
BD90BE0E
BE0154CA
3C847F56
BCAF9CA6
3C8904F7
BD58298D
BBD48BDE
3D14866A
BC98D478
3D820579
3D2A3162
3DA7503C
BC4E4A7B
3D59D55E
3DB3DC8C
3D362520
3D3254E7
3C41376D
3CCEA077
B9D84E35
BA8F1760
BB616E45
3C95EE13
BD95EC81
BDBB224B
BBE0688B
BC17D574
3CD9CCFB
BCEFFC11
BD5610AE
3D8FB00C
3C83DFF4
3D15D0B7
3CDF7404
3D5EAFEE
BC8DF15A
3DDF6556
BD90691F
BC98C9FB
BD897AEE
BC2B3248
BBA3161A
3D902364
3E0F8DF8
BDAD972D
BD01F42C
BD64F11B
BD8B5569
BD75DDD3
3CFA7222
BDA7FA1A
BC2A326E
3C3D6627
3DDADEA9
BD784BA1
BCA7B917
BE062A1B
BD963993
BDC74FB5
3D5C1A48
3D59A848
BCA3FCCA
BCC26352
BDDA9542
BE18D4FE
BD59A0F1
3D29A3D3
3C112770
3DA91538
3C3D1AA8
3C9F2DC3
3C63821B
BC29DE8B
3D0ED5F1
3D05521A
3D28A2EC
BB69D876
BD4406C0
BCBF5F91
BDE5A46A
3C0C0BA7
3CBA8C58
BCAD6883
3D07192F
BD7736CE
3D1934F0
3D440D0B
3C09C57C
BAED8AB2
BCEC0F88
3C50EDC4
3D285EC4
3D1680E0
BD91E7DA
BC55B680
BCD907D9
BCC827B7
BD331E3A
BDE92A30
BDD7C6FC
BD9C2CA1
BD3F2E49
3D671FFF
3C4C9EAA
3CC67DFE
BE0EA9E7
BD8B53D6
BDCA8544
BBEC9412
3DB60525
BC4B5350
BD11E42E
BD71B153
BDDDE15D
BDFDD441
BB3B8D09
3D1B9629
BCAF294E
BC12B7FE
3D18C4BD
BD790EAA
BD706C44
3CA63305
3CB4F616
BD16909B
3D1AAA3B
3D4AF0BF
3CD7C6FC
BC9DDE37
BBB6F5CB
BCCD63CC
3CEB54E3
383541C1
BC0A5CE6
BC8A2A91
BD4750C2
3C80CF9E
3BB7DFD6
3CBCB817
BCD5842B
BD0E10CF
3CC0895D
BD153155
3CB3D295
BCFE3F36
3BD35DE1
3D2FAB54
BC03EEA2
39B94485
BD35019F
BD49F623
BA9539B9
3D4155D6
3A9D967E
3BBCA38A
BD0DE2AC
BD37BD06
BC92F2B6
3C1B7AB0
BD41BEB2
BCDB6E50
BA7FFFD5
BC8BA626
3CDBD0E1
3D13E708
3C988B11
3CE1565C
BC27B0B4
BC03F416
BCB8F57F
BAF1FF8C
BC15C34B
3CE80BED
BCA018A4
BCD15CEA
3BACAC9C
BA6F53B5
3CDC2D28
BD1056C5
3CF3BEA9
BD1DFCA0
BCB5A858
3CA4180D
3C5013A9
BB194185
BC07C41A
3CC0181E
3CBBB83D
BC2AEF2C
BCD26741
3C50D499
3CB08356
BBB0B53F
3C747B67
3D1D1A22
3C12A7A2
BA19BAA7
3C7DB09A
3B92AF9B
3D2A3AD2
BD4DBCED
3CB84DBA
BB47F4F7
BD1BAD3A
3C314EC2
3D16FA83
BC637154
BD48A15A
BCB1CC96
3CAA7DED
BCC052D6
BD5F3733
3CF1B8AA
3D23A7DB
BCC3E74B
BD47B02D
BCFAE579
3CB7AE58
3D0D4DC6
BC2C8A37
3D031CEB
BCF83383
3D0C1334
3BE147AE
BD0E5A36
3CBE5109
3CEF21F7
BAECAD3D
3CEF5665
BD59F5E0
BCE15443
3C449BA6
BD311C6D
BD2032DB
3C89A672
3D28C155
BD2FB092
BD523E5C
BCCF2064
BD1E4E6A
BCDCAF2D
3BA9C8BC
BD50C3D2
BAE7A164
BD644D87
BCA4DF48
BD58F606
BC35CBFF
BD1FA872
BCE60E52
BC3DCAD1
3B099616
BB5200E9
BD31FDDF
3D00064B
3C798FA3
3C66C094
3D05AA2E
3B1AF768
BC4C1440
BC2033E8
BD414E7F
BD0A5269
BD5434A0
3CDEDF1E
BBD76B8C
3B5D98CD
BA8F2EDD
BBCB1F4E
BCB46FDF
3D031DF7
3CE9DF98
BD2A5B53
3C60A84C
3D06F7A1
BD093A71
BC370AC4
BD5B2C41
BCD35009
BD3AF534
3C93B18E
3BBF818B
BC35525D
3C4E4A7B
BBB44440
BC996D8F
3CA76FB1
3D00A06F
BD258D58
BD4D0FE9
BD00218E
BB97AFB5
BC06020D
3D1B23DD
3CAE6EA8
BD2CA255
BCC23D92
BD385943
3CAA4B99
3CC7D3D4
3CE8AD69
BD04295A
3CF9A06A
BCF9DB23
BD00CF9E
3D1D883C
BD29424E
BD3D028A
3C22D949
BBBE0EC4
BD1BD72C
BCBFAF42
BA8D957F
3CAB7DC8
3C86466B
BC9A79FF
BB0B2DC6
BD042203
BD123D4F
3D30D62C
3CE809D5
BBCD7492
BBAA7A92
BD0064AA
BD2FBA02
BD132C62
B9CE5EC8
3C954EB1
BC5A5DAF
3C8FF10F
BCF4A98B
3D042310
BCEEB0B8
BC395E5B
BD314120
BB68279C
BD39B23E
3D07C0F4
3D33647C
BCC5AE60
BC7DF7E8
3CB92E1F
3C893FAF
3D16CC60
3CB6B4C8
BD53C57A
3BCBEF57
3CB00150
BB4834B8
BCB5653D
BBA13CFC
3CE40C84
3CC8ADEF
3BB03AC6
BC605469
3BC2359A
BCDAFAF8
3D0F4517
3C3A6267
BCAA1B5C
3BF5D5DB
3C0FEC06
BBF38675
3C976577
3D0F8940
BD1E68A1
3B4D97CE
3CB00DE5
3D022899
BD4A7935
BCA94574
BC502CD4
BABFD99F
BCAE7F6F
BBCD1AD0
3C1EC263
BCD436B9
3D21E710
3C6E136E
3D1FEC9A
BBFF88E2
BC0AE968
BCDADFB5
BD29C23B
BC7765FE
3D27D34E
BC8F301F
BCC17226
BCC31594
3C64D1A6
BC88A04D
3D346AA1
3C2CF313
BC3C5155
3CCE8965
3C958D9B
3D103A75
BCF4C900
3BC2FE17
3CD9C497
BCF75B81
BB54C33B
BC431DF7
3CF49492
BD348E47
3C9B499D
BCEA1837
BD3F2B24
3D1425F2
BD01A9B9
3BABF76A
3CD40464
3C5323FF
BB7260DB
3C2FC8B0
BD4A1AD6
3C306C44
3D043C3A
BC9B79D9
BD1B8349
BD3D4E09
3D25ECC4
BD597A25
BD2B6E0D
BD0CA926
3C96DD27
3CB30942
3D1DCA4B
3B9676CF
BC70B285
3CBED0F6
BB533094
3CDAAB47
3D2CB74E
BD5F44D4
BD36AE7D
BCBD7B20
BD3D9FD3
3C65D181
BB2945DF
3CE8FB01
BCA8BF3C
BD5B62C7
BD39A8CE
BD28283D
BD0ADEEC
BA084330
BC6D3522
BD11FF71
3C8C4157
BD2ADC4D
BD3D9770
3CE5F959
3C059932
3CE6DBD7
BCB7D1FE
BC57279A
BD564734
3C6B4E98
BA9FCD90
BCB7E2C5
3D2394FB
BD555B46
BCC1A47B
BD5F97AB
BD48509C
BD2E9AB3
3CBFD0D0
BD380022
BBC03FF7
3CFE5EAB
BCA6698C
3CF7A2CF
3C1E8C48
BCD1B717
BB825834
BC52F5DC
3D334613
BD022142
3C9B1B7A
3C011EE4
3D35610B
BD1D80E5
BCF2367E
BD1E84F1
BBA3D2D8
BD402F30
3CEF177A
3D1E02EB
BAA738BF
3C62B496
3CA43782
BCF3C4F4
3D08ACE2
3D3735C2
3AB9B746
BD05F7C6
BD3B03E2
BCBD20F3
BD1F15A5
BD3C7608
3D060136
BC7733A9
BD0AD46F
3CF84CAD
3B806291
3AD5C3EC
BCD9D777
3D208BFC
BB6D3BD8
BC9081C3
BC9439DE
3BF2693F
BCA20792
BD1568E8
3C4AD57C
BCE6644E
BD4E5E68
BCC99286
3DCA70D2
3CAC03FF
BC778BBD
BDFD07C8
3E12BA9D
BDF765FE
BDDDF117
BD752EB6
BDEB40F6
BB618FD2
3CF6C26A
3D26F60E
BD2FA93B
3AED4797
3D865E03
BDB0CF5B
BE4D81AE
BCBCA969
3D8921CD
BC35C7CE
3D1CBFF4
3DB1CEAF
3D0CBC06
3CC5A1CB
BCB9218A
3D282731
3CFC115E
BB4480CE
BC9D3CBC
3ADCD127
BDCDE7EA
BD270B07
BE101B86
BD52513B
3C7B7E91
3D5984A1
BD190F30
BCD96C83
3D922C02
3D03A861
BDA759AB
BD811127
BCBB2357
3D59C8C9
3C3D7B20
3CF9F87F
3D9347A6
3DAA3A4B
BCB6D86F
3BD7617B
BC781627
3D4CC9A7
3CCAD795
BD2D9DFE
BE06FE72
BD46AF47
3D85A2D7
3DAC6477
BB1998C3
BD0C8ABD
3D0DA2B6
BD38F798
BC930596
3CE31727
3D0FBCA1
BD70B9DC
BD0D4BAD
3E1928E1
BCBD9232
BD1D26B7
BD121BC1
3D083CB0
BD78DB49
BC0DBFDC
BC9EF955
BD057D18
3D560631
3CF93576
BCA94574
BD3CD24E
BD211340
BD17DF1A
3CEEC9E2
3D3CEA6C
3CD60631
3C6E9574
3D8A8B8F
3D125EDD
3D8BC7B4
BD25A9A8
3C3B55AC
3B0CC723
3DB82774
3D8DDB55
3E24D014
3DB5C4A8
3D88E821
3AB47919
BC77BE12
3D81FE22
3DB15832
BC2DA76E
3D978466
BDAAC7DA
BC6F88B9
3E0BF877
3DBAD42C
BC6F5665
BE09F40A
3D812A52
3D0B252D
3AAEE709
3D94A904
BD82F838
3C58BE73
BE074A77
3C2E31D7
3D9BE3C1
BD53B18E
BDA87DB3
BE208312
BDAE08F2
BE354F37
3D316A05
3D08D8ED
3D64AADA
BD6A4EBE
3D037E6F
BCBBE879
BCB83CF3
3DC52AC7
3D3FB04F
3D542F62
39886366
3D9A9197
3C9A8AC6
3D785A4F
3DD07747
3D9D45A6
BBE7FBFD
3CFB95A3
3D86E08F
3D3EAC43
3C35B707
3DC310DC
BB357ED2
BD4389F8
3C8D0AAA
3D582667
3DD8C2A4
3D18F4F9
3D9F6A94
BDC759AB
BC995465
3C1A1F66
3C83F4ED
BC91E860
BD038C11
3D87C0F4
BD0573A8
3BA7F4A6
3D59231C
BCBF4235
BD60C38F
3DAD8A98
3D528E0D
BC9E7B81
BC26F3F5
3D0C692F
3D872431
3D3FCDAB
3D5116A9
3BBE355A
3D14E5D6
3D0969A1
3D48EDE5
3DA6644E
3B8AAD6E
BDBB0468
BD594AF5
3C6BAF10
3D8F2E8C
3DDAFE1E
3D1CC533
3D5B0143
BC9DC0DB
3D0941C8
3CB63F57
3D1A8262
3CCEE17A
3DA5BD94
3D9D5ED0
3D17D391
3DE324C8
3CF91E64
3CA16A48
3D428A1E
3DC6FE72
3DCB5B2D
3D3B3D8E
3DAFCA43
3BCBADE9
BD5F85D7
3D02E233
3CF1EAFF
3D24A6A8
BB4616D0
BD0405B4
3C0317E2
3D0C21E2
3B8DB057
BD16C93A
BE033C60
BC8F4517
3D7B8F58
BC83F2D4
3BEF3400
BD30A3D7
3D5A35D6
3D7D4174
BD24B76F
3D180E49
3C4F2064
3D0DB8BB
BCFF79C8
3D4B1034
BCB10343
BDBA469D
BC5462C3
3DAD7CF6
3DB46456
BA3EA191
BD5796C0
3CCEF45A
3D8C0CE9
3DDF7510
3C2CEEE1
3CBD2FA1
BD27D88C
BCE15443
3CB4E768
3DBB7AE5
3DBD4F16
BD26BB56
BDAC0BDD
3C97FA5D
3C0B3263
3DE223E2
3DA1F8E4
BD448F11
BE2D18D2
BE0577D9
3D66A876
3E1DAF8E
3D219221
3D9D095B
3C394962
BDE16C61
BC5ACEEE
BB8A03FA
3D8F6380
3C35C39C
BD2060FE
3E08A47F
BB48076B
BDB9C305
BC0716E0
3E2378AB
3C8BFA09
BE0D2B2C
BD884E83
BD25B856
3B22FE9D
3DE15CA7
3D1883BA
BCE394FB
BDA88484
BB9FA11B
BD13D534
3C47A7CA
3D96C9C1
3CDC011D
3DB81F97
3C853198
3D1BB279
3C760179
3BE19FC3
3CFE5C92
3D9B41C0
3DCFDF3B
3DCF6167
3D5C1C61
3DCB4B73
3CFA5094
3CB7824D
BCEB1C43
3D6C4D66
3E0C0AD0
3DBB9735
3DA3C4B1
3D10EA9E
BD308462
BEAD57BC
BE7F9485
BE197247
3D9EC02F
3DFB6998
3DB9780C
BD854717
BE41B867
BDF1F8A1
3C50F1F5
3D9D840A
3DAAAEB0
3CA2C669
BDD5A5B9
BD009F62
BD7D2524
3D1EF955
3BC838E9
3DAF8162
BD7B7E91
BD957BC8
3DA34E33
3DB4898F
3CB3E143
3AA39AA4
3DC2352F
3C8767D3
BC9B1961
BCF8B157
BB464778
3DE7FF58
3DF4C1A9
3CDB317F
BD271AC1
BC6C2CE4
3D36C69B
3C74C6E7
3CC573A8
3D92D6ED
3DC875D5
3D8DF82B
3DCC78EA
BD93F8DB
BC073A87
3DB912DC
3D6DB403
3E209D49
3D95EC81
BD8BBA99
BE8003EF
BE2D4802
BDA275AB
BD2ECAEF
3D798959
3D2E5EEE
3D6CC5FC
BDC78078
BE22602D
BE07A0F9
BD365CB3
3DBCC5B9
BDDDF655
BE36CDF2
BDB43B71
BC40FCB5
3CFDBF48
3C92C8C5
3D6BBBA5
BE8436B9
BE402752
3C07ECC9
BB694325
3B0D0389
3C2A4FCA
3CF64AE0
BD62F7B1
BD86809D
BD25F959
3C2043D8
BAAAD37E
3D890CD4
3D9B9D80
B98CEC62
BDA91106
3D270C13
BC86162F
3D5C8A7A
3D31E6CD
BC111BB1
BC88E582
BD355EF2
BD39420B
BD0C8CD6
3D4BBC2C
3D284F09
3C90C0AD
3C969A0B
3CACB429
3D0306E6
3D112A95
BD2A5B53
BD33B214
3CA7AA69
BD502EEC
3BB90F81
BD1C2C1B
BD351CE3
BCD8BA41
3D286402
3CF43633
BD1C8DA0
BD49CE4A
3C94940C
BD4EB895
BBA97686
BCC382A1
3D3E9963
3C3E37DF
3CAFC47E
3D02B0EA
3C81754B
BD1F3D7D
3D0B007A
3CDECC3E
BC35BF6A
BD2B7564
BD0D8772
BCEEEFA2
3BE29810
3D189268
BC855326
BD023FAB
BD2AF039
3D32BA9D
BBDDB700
3D2CCF6C
3D3ECFEA
3CA4B76F
3D330510
BCED7E89
BD505C03
BD450ACC
3C4DBBE0
BC1EF44C
BB9C3E90
BC250508
BD299FA1
BC853198
BD3A7B91
BCF22186
3D3FB9BF
3D2C4D66
3D41C3F0
3C26E32E
BC97EBAF
BD1F0D41
3A924A1A
BC91A544
3C4E95FB
BC70C77E
3C500F77
3C5AAD60
3C41BDA5
BD4152B1
BB0A4B48
BD126A66
BD04D22D
BD0D23D5
BD29F6A9
3BD7914C
BCC5D639
3D2705C9
BC96B11C
3D1A1DB8
3CD62175
BCF51EFB
3D23C969
3D1B823D
BD09A240
BCE65E03
BD2A5721
BC837718
BCA8DEB1
BCFF8013
3C70E4DA
3D36CBDA
3B8013B7
3D28DB8C
BD4DCEC0
3BA66CE7
BCD523B3
BC8DA1A9
3CD8ADAC
BD1C9D5A
BCDCBFF4
BC8F301F
BCDC5B4B
BCC564F9
BD1E6FF8
3CEA875D
3C90FF97
BCA3DF6E
BCF2324D
3D2FE825
BD3C2657
BD07C526
BD4B73D2
BBF3160D
BCD8383B
3B16E22F
3AA50F19
3B7803B2
3CC47A18
3CDE97D0
BD3BB40B
BD235936
3D38A6DB
BC5E5083
BBEAC42F
3D01C715
BB550B60
3C92556D
BA2BDDEA
3D1E2260
3C8AF1CC
BD1754B0
BBAED494
BB4390E4
BC859642
BCD6A7AD
3D3D31BA
BBE3E517
BD545953
3C332CE9
BCA554B9
3D3992C9
BD26772D
BD0D2A20
BC995AAF
BD004966
3D07E7C0
3CDBA4D7
BCEE86C6
3D3DB3C0
BC5BDF8F
3CB6D43D
BCA5CC42
BC980B24
3CDA682B
BCDD095B
BD0EF566
BC43EFAE
BB936171
3C47BCC3
BD407033
BB4BE03E
BD062F5A
BAF0662F
BD56872B
3D08637C
BD151A43
3CBC98A2
3D0D7061
BA4DA4E4
BD11F70E
BC9DCF89
BD166F0D
3C0CD77F
BCD72FFD
3C82D16C
BD4941C8
3CE731D3
3CF3D189
3C13B76D
3C8ACC0C
BC222630
BD15C209
BD560E95
3D2CB535
3A85D66E
3C06B6D3
3D18AB93
BB90E66D
3CA6E760
3CD85DFB
3D31B25F
3C03CA90
BCBAE254
3C5CEBFF
BCB52008
3D2490A3
3D38348F
BCE2584F
BD408744
3CBFF25E
BCC08FA8
BBDE7642
BC978D50
BD55B78D
3C13C544
3C8E0653
3C044A12
3C5CDB38
BB93FE4F
BCFE846A
3CA0D563
3C538045
3CDFA227
BCC419A0
BCF20A74
BD1A6D6A
BC5755BD
BC4B9ECF
BCCA03C5
BCE45C36
BC9C1722
BD126959
BCA7AE9B
3CB382E4
3CB89939
BD2D8F50
BC81A9B9
BCA38DA4
BC65B424
BD0F00EF
BD0D1633
BD1CA18C
3BA1C4E1
3D2C7326
B8908004
3D23E5B8
BC59D346
3A947065
3C4CEA29
3BE26C71
3CE63C75
3CE1B2A2
3CBB3E9A
BCE032DB
3CE05037
3C89C3CE
3D279570
3CC48CF8
BD0D63CC
3D422681
3CF65DC0
3BBE0C40
BC824B34
3C87CA64
3D0BEF8D
BCB08787
3C611127
BB7A417A
3CC12CF1
BC829281
3CDFDEF8
BCABA387
BC74F50A
BC037494
3CDC8755
3C1E5266
3C09BD84
3D46E7E6
3C5905C0
BCB18DAC
BD3D3F5B
BCC37C57
BD3660E5
3D103A75
3C05B333
3C0DB41E
BCE0A84C
BD0A7504
BC071B12
3CEE86C6
BD37F38C
BA0E3A96
BCAB4528
3A1211BB
3D1EC3DB
BA4B7488
3D3D028A
BCAE1AC5
BCAC6690
3CE2EB1C
3C0102CA
3D3A4C62
3CCE1A3F
BD2DA017
3D11E53B
3C9799E5
3D0C521E
BD1BB6AA
BD1D97F6
BCCDEA03
3D0D25EE
3C643244
BB905045
3C20C430
BC83B81B
BC9B089A
3B128D36
BCFA0F91
3D03979A
3CF62739
BD1EC919
3D408FA8
BD5094A3
BC3341E1
BB24D105
BC0C6A72
BD354D1F
3AD1C128
BC9C475E
3D1D2179
BA056301
3D052C5A
3C887011
3CDC65C7
BD410B63
3D0ED4E5
BD0EBDD3
BCBCCF29
BD0E0978
3C535654
BBCF553D
BD1FD8AE
BB00247E
BD272A7C
3D12AF9B
3BF54816
BCD64F98
3CE9BE0A
3D3B0E5E
BC68BC17
3D206317
3D0DF04E
3C152E65
3D2606FB
BD04912A
BD389C5E
3D207D4E
3ADA13DD
BC9BDE83
3CC113C7
BC02879A
3D0399B3
3D18958E
3AC2EACC
3B848890
3D263950
BCDAA0CB
3BB6962A
3D077037
3CADEEBB
BCAFE825
BD2934AD
3B20E263
BCA38DA4
3CFDC161
3D3F9831
3A7BB3EB
BCC32010
BC89289E
3D246CFD
3CBAEEE9
BC236347
3C11DDE3
BCAE514C
BD052935
3D3F0132
BD5461B7
3CF3C0C2
BC8F6F09
3C7D199C
BCA28134
3AF9137D
BCE008EA
3B5C8AB0
BD3AF534
3D09DBEC
BC018175
3BD2094D
BC948777
BD315832
3CC88E7A
3C9E9292
BB0301A8
3D0D1959
BD36B3BC
BD112CAE
BAFEC3C0
BCCB0E1B
BCAFA0D7
BD36A50D
3D19F1AE
3D07442C
BD2E73E7
BCC99286
BCAE8188
3CDA63FA
3C8BC7B4
3C39BED3
3BFEDB3D
BCA6A444
3CAAFBC2
3C3DE3FC
3B3C5D13
BCF878B8
BB50E058
BD2A24CC
BCB79D91
BCC8C500
39894E48
3D061523
3D3E7AFA
3B85FEB2
BCBC1F00
BD5013A9
3D1DA273
3D13F7CF
BCEB0B7C
BC0C168F
3BFAAE87
3CC20924
BD3995EE
3D2BB342
BB4FC321
3CD4E6E2
3D2596C8
BD14AC2A
BD5F1F15
3D010D7C
BD027525
BD0AFA2F
BAE6A5BC
BD28C155
3C54DC66
3C070C64
BD596C83
3C2CA362
3D3A54C5
3D0CF4A5
3C6481F5
3D09FD7A
BC239530
BD29563B
BD462F5A
3C8E7FF6
BD259296
BCA83B1D
BD0FFA7F
3C699A63
BCA93AF7
3D299C7C
3BFED8B9
BD40C0F0
BD334A45
BCB44E51
BC879E5A
3D0054EF
BC202829
BC447A18
3D1348B2
3CA43138
BCF891E2
BC2DE658
BCEB7889
BC4A4F44
3C94EA07
3C99AA61
3CAA6091
3AD9F24F
3CF80779
BC3C7B46
BCD5CD92
3D246499
BC930596
3C3823C8
3D31DB44
3D1C2C1B
3C514E3C
BCD3825E
BCEE49F5
3D088E7A
3B7ACB0D
BCC764AE
3C0440D7
BD5AC040
3C65D5B2
BC1495B9
BCD2D44E
BB17C65B
BD482BE9
BD31EE24
3C648E8A
3D075819
BCD7F51F
3C861C7A
3BC419A0
BD53A81E
BD0DEF41
BBCF256D
BD3FD0D0
3CA27F1B
BD3BA66A
BD157BC8
BD649E45
3D2E2867
BD1BFF04
3D36FB09
BD21E929
BD276428
3C26D267
3C5E0503
BD314A90
BCB76D55
BCE0E51D
BB2A7DED
3D0064AA
BD3CF1C3
BD3FD502
BB7C1A98
BCFE9D95
3CD208E1
3C51FA33
3CFBD05B
BCDC011D
3CE7B80B
BC458EEB
BC5FACA3
3D012CF1
3C250939
BB414AB9
BBE9C0F9
3CF02A35
BC86AF47
BD1B317F
BD3E6E65
3BFDEA7C
BCAF3C2E
BC3EB5B3
3CC30D30
3AAA21A7
3BD9A7A7
BC939C95
BCCE032E
3BBEE8DE
BB913E81
3BA6D0BA
3BA696D8
3CA05144
3C9DFFC5
BC8301A8
BCA0791C
3B5A4632
3A449FAD
BCB9E061
BC317CE5
BCFA3982
BD6413DB
3C3B6241
3D1083DC
BC9A4BDC
3D25ECC4
3D343201
BBF48147
BCB7C569
BC676428
BC1E59F3
BC386F48
3CFC2A88
3CA15337
3CDBA0A5
3CB87592
3D0F6599
3C39884C
3AD939C3
3BA49C2C
BCA0620B
3CDFD263
3CB122B8
BCFF6B1A
BD584A0E
BD3AEDDD
BC0305D9
BD234EBA
BC959C49
3CEAD4F6
3D17EDC8
3CC6A7F0
BD5BC233
BB217CBD
3D160D88
BD106EE3
BD38D2E5
BD44B902
3CAEB80F
BD5C5B4B
BD5289DB
3A516F49
BCE6772D
BA5227D6
3D11D580
3CC0E9D5
BBD519A2
BD686B59
BCB039EF
BCDB6A1F
BC7EB8D8
BD213900
3D25AFF3
3CCAA971
BC1CB2BE
BC70D413
BD107747
BD494813
3CF5903A
3CCB5BB4
BD28F084
3C72E05D
BD5B8349
3C99AE92
BC6453D2
BB8C3F3E
BCC55EAF
3D32C732
BD41A9B9
3D0A0E41
3D0B30B6
BD02949A
BD1CC101
BD22E3C5
3B4258D6
3D14F26B
BD045565
3D1C0A8D
3CFE8CCE
BB71A198
BD0DC337
3A937ECD
BC302D5A
BC9F9054
3BB6D946
BCCC2B52
BC22F19D
3AF3CB3E
3BCC4FCF
3C629B6B
BD705426
3CE8F8E8
BD33DF2B
3BEF24E6
BCEDC7EF
BCA20579
3D2B27CC
BC01387A
3D185272
BC1A2113
BD433F85
BD0E92D5
BCB4EB9A
BCC48063
3AED51A8
BA2D5107
3CD5A9EB
3C0676A7
3C5A37EF
3CE89870
3CF53E70
3D2B1D50
BD55BAB2
3D21CEF2
BC43DAB6
3C2E147B
BD0F42FF
BD58E64B
BD5FE868
3CFF9724
B9A4A714
BD5040C0
3CEE88DF
BD3A8E71
3C611559
BD1717DF
BBB24B41
BD3AABCD
BAEFCBD5
BD4768E0
3A9B9877
BCB8FBCA
BBE038BA
3D2EAC86
3C860DCC
BD1BC340
BBB8CFC0
3CFADF2F
3D007464
BD04A0E4
BD19A0F1
3CECDAF5
BD49FF93
BBCBD8B1
BBB2AA0C
3B67FBFD
3C906680
3D28283D
3CD959A3
BC95A4AD
BD1CEF24
BD6647FE
3D257EAA
3C9CB03A
3CA91750
3CADA986
3BF99EBD
3CA3CEA7
3D2BFFCE
3D34245F
3D19C8C9
3CAB0A70
3CB777D1
BC01FEDE
BBA9BC27
3BE1719F
3C94317B
BC2F7D31
BCACD9E8
BD245D42
3CB3A259
3CED1E11
BC13D387
BD0F15E8
BD36A833
3D2F251C
BD02B94E
3D23B9AE
BB482AA7
BBA6EE16
3D2410B6
BD0A88F0
BCAA1B5C
3C3F0996
3C4DAF4B
3CD73A79
3C41B110
BD314FCE
3D10B0F2
BCC33D6C
BD0DB164
3D02A23C
3D0F227D
BD041893
BCF81E8A
BC88BFC2
BD5476B0
BBC2DFE4
BD62877F
BC029AE5
BCF633CE
BA8F4D0F
BD382E45
BD1A2B5A
3C27589F
BD5F2885
3D11FA33
BC744913
BD181BEB
BD1FE32A
BCB328B7
3D21309C
BCB8C543
BD055DA2
BD32F76E
3D29B068
3CBB98C8
BD200086
3BB8AAD7
3D461848
3C5E4C51
3CE47347
B9955FF9
3D123704
3D08DB05
BBACC26B
3D1F4D38
BCD44780
BCBC44BF
BD1A21EA
BD460BB3
BCCF28C8
BB9AE777
BB4139F2
BD34DCEC
3D398C7E
3CCA6224
BCCC2B52
BD0621B8
3D2556D2
B9A57875
BC4D9E84
3D3FA4C6
3C82FB5D
3A659093
BD4CF6BE
3D34ACB0
3D3FE3B0
BC809D49
BD27392A
BCFF21B4
BCD9817C
BCD8A32F
BD18904F
BD1208E1
3CA28566
BCD95571
BCD86A90
BD2A6C1A
3C9198AF
BC528D00
BC4868BA
BB8FACB1
BD38F57F
BD167664
3D20DDC6
3CB1B153
BCBF444E
3B1CB75B
3D1F8E3B
3C1FCED2
3CAC03FF
BC58A116
BCF8A4C2
3CD8D152
BC582BA6
BAAFF378
3D21D649
3D16A6A0
BD2009F6
BCB33FC8
3C512CAE
BCBC33F8
BC185D59
3C9FEC9A
3D2DE332
3BFFD60F
BD5209EE
BCD7B203
3C9AC797
3D285DB7
BD017EBB
BCE2AA19
398D09E9
BAC3562C
BD188B11
BD1AAB47
BC197CA9
3D325C3E
3C84FD2A
3CC4AE86
3D2C18F8
BC9D7BA6
BC63821B
3D0304CD
3D46A7F0
3C63C537
3C7C610F
3D226916
3CF4A772
3BFE0A5C
3CC10D7C
BCD9C066
BD541FA7
BD0D1D8A
3C9DB65F
BBE0ABA7
3C0C0BA7
3C9372A4
3C3352A8
BD34C09C
3CC1D4B7
3C605469
BC8EEAEA
3BEC4030
3C888723
BD386E3B
BBD368C8
3CA595BC
3D2378AB
BD0FFFBD
3CA9EF52
BC218018
BD51DCD7
BCD9EC70
BC57F951
3D0F25A2
3CDB37CA
BD26E86C
BCFC829D
3CBA5C1C
BCE644D8
BD14DB59
3CDFDEF8
BD1C2C1B
3CC09C3D
3D2A0232
3AF37AB6
