BD90624E
3D09A027
3E2E147B
3DAFB7E9
BCFEC56D
3D92A305
BECA64C3
BD9F559B
3EB4F0D8
3D01D7DC
3E8AB368
3E6703B0
3E154C98
3EA075F7
3E65E354
BE4C7E28
3E5C5D64
3EFDD97F
3DBB2FEC
BD81D7DC
3EDF2E49
3E7CED91
BC8B4396
BC68A71E
BD4D35A8
BD86594B
3D1096BC
3E3A43FE
BE410625
BEE7D567
BEA6C227
BEF0F27C
BE926E98
BF0E1B09
BE8B5DCC
BEADAB9F
BEB212D7
BE79096C
3DA47454
BE563886
3E3C9EED
BB16BB99
3C30F27C
3E72FEC5
3E4C63F1
BE967A10
3E675254
3EB5B574
BE248E8A
3CFB7E91
3E4E8A72
3E102DE0
3E5C91D1
BE1AD42C
3E397247
3BB78034
3E28240B
3DC60AA6
BDC1BDA5
3EB2BD3C
3E160419
3E9652BD
3EA96BBA
3DD63886
3DCB5DCC
BDC3C9EF
BD01D7DC
3DBB98C8
BE204189
3E001A37
BCBAC711
BDCD9E84
BD4710CB
BE31C433
BD7765FE
BF00D845
BEB7CED9
3E158106
BE85F06F
BD89D495
3E7A786C
BEDBB2FF
BEDA5E35
3E18C7E3
BEF61E4F
BE16F007
3ED487FD
BD4FAACE
3EC90FF9
3ED07C85
3E544674
3DC67382
BE585F07
3E013A93
3D5ED289
3CDAB9F5
BE7A29C7
BD23D70A
3EB66CF4
BF1AD42C
3D2ACD9F
3E746DC6
BE96E2EB
3E6E978D
3E8075F7
BC9EECC0
3EB8C7E3
3E666666
3E965FD9
3E570A3D
3E19B3D0
3DA3D70A
3CA57A78
3D902DE0
BEDB98C8
BDBBCD36
3D9930BE
3EBE83E4
3E74D6A1
3E31F8A1
BB79096C
3C809D49
3EB23A2A
BE161E4F
3E4D4FDF
3E8D42C4
3E23F141
3E5D7DBF
BD7D21FF
3D0240B8
BD09A027
3D2C710D
BE47FCB9
BE107C85
BC985F07
3F112D77
3EF182AA
3E00346E
BDF03AFB
3D6353F8
3E87BB30
3EEC49BA
3E86E979
BCE978D5
BE8ACD9F
3E560419
3E5F212D
3CC710CB
3E5A36E3
3E34BC6A
3E22D0E5
3EA88CE7
3E841893
3EA9EECC
3E885879
3E318FC5
3EC1FF2E
3E67A0F9
3E16BB99
3D8C49BA
3DDA8588
BE573EAB
BECDD2F2
BDC538EF
3E7CB924
3CAA64C3
3E252BD4
3E102DE0
3CCF41F2
3E8EB1C4
3E65AEE6
BDAE7D56
BEA353F8
BDCB295F
BE191687
BEDCAC08
BE8BC6A8
BED3F7CF
BF3FB7E9
BE62680A
BD941206
BDDF6FD2
3E22EB1C
BE58793E
3E32E48F
3E9FE5C9
3E14C986
3EBAB9F5
3CD77319
BE980347
3CC710CB
3E6F34D7
3D4779A7
3E94A234
3E3F2E49
3EC10625
3E31F8A1
3DEBEDFA
3E2F0069
BC985F07
3DEB50B1
3D875F70
3D507C85
3E182A99
3E3FCB92
3EC52BD4
3D398C7E
BDCAC083
3DDA8588
3EB119CE
3F1B295F
3ED2617C
3E97CED9
3E952546
BBE8A71E
3EC1205C
BE65460B
3E8D013B
3DC154CA
BEE13A93
3DDA8588
3E93F7CF
BE5ED289
3E8C8B44
3EB096BC
3C4154CA
3DE425AF
BE08E8A7
BCC3C9EF
3D3E76C9
BE2BB98C
3E8F6944
3E09BA5E
BE86F694
3E734D6A
3EAB0F28
3F0C3C9F
BE224DD3
3E324745
3F124DD3
BE9C779A
3E5DCC64
3EBC9EED
BADED289
BDE24DD3
BF104EA5
BDFB15B5
BE91B717
BF3C0831
3DBE425B
BEC52BD4
BEFDA512
3D96F007
3E88E8A7
3E1A6B51
3E56BB99
3E116873
BE1E83E4
3EF758E2
3E690FF9
BE846738
3C6703B0
3E0E5604
BE8A3D71
3E5F212D
3D514E3C
BEE1E4F7
3E7A29C7
3CAE7D56
BE6B50B1
3E5A1CAC
3E4AC083
3EB6AE7D
3E8C63F1
3E821965
3E4D1B71
3E91DE6A
3EA5119D
BDD70A3D
3D3573EB
BE449BA6
BF17B4A2
BE7F9724
BF3D14E4
BF0CC63F
BE918FC5
BF0AEE63
BE240B78
