3F250481
3F17AE14
BE121FF3
3F38C7E3
3E5BF488
BD1FBE77
3F18EF35
3E71A9FC
BE9D14E4
BE858794
3F2D3C36
3F4EA4A9
3EC2D0E5
3F08793E
3E706F69
3F2652BD
3E3923A3
3F19F55A
3EFB645A
3E1FA440
BF117C1C
3EFFD8AE
3DBB98C8
BF216873
3E3D07C8
3DA9930C
BF1013A9
BF256042
BF21A36E
BDCF41F2
BE17C1BE
BCEB1C43
3D81A36E
3F3161E5
3EBA0275
3EC2EB1C
