BE2FE1DA
3D9E646F
BE539970
BEB90EAA
BD8723AB
3E126E98
BDCDA3C2
BE3212D7
BE6D898B
BD56605F
3E25143C
BD8A0E41
3E205BC0
BD848B65
BE84B48D
BE943FE6
3E2BE8BC
3E24FA05
3E771F36
3E33A3EC
3E5DBA0A
BD801BCA
3D0E0547
3CDD4C77
BD4F1A1A
BEAA3C21
3DD018E7
3E0EB1C4
3E0584F5
3E069AD4
3E23E426
3E08A1E0
BDE7D029
BE8C1A8B
3CDA8588
3DF62B6B
BD88216C
3E3D14E4
3D072086
BC5BC233
BCE9F278
BE06F156
BE9EFDCA
3DE415F4
3DB5D67C
3E8D18D2
BC63821B
3E16C376
BD20F2BF
3D53DB7F
3E4FE9B8
3E3313BE
3E019B91
3E62A993
3D756B87
3E8B00BD
3D0E1C58
BE441893
BC97E34C
3DB9A522
BDABFA8F
3DC73ABD
BE6CB535
3DF35D25
3E079BBB
3D9D6E8B
BDAF66A5
3DA91538
BE8C2118
BF078B59
3E193DD9
BD23C212
BE0108C4
3DBC58AC
3E01D7DC
BE007DD4
3C8DED29
BD7605AB
3DB5D9A1
3D86F502
BDF443D4
3E83404F
3E8137F4
3E330942
BE272086
3DF83CF3
BC31D92B
BD58537E
BD2BBFD7
BCECACD2
3E12AD82
3E0C8605
3D64F65A
BEBCD20B
3DF93DD9
BE528B6E
3E768F08
3C24052D
BDE55B03
3E8CE9A3
3C1E4CF2
3CDB0575
3E37BF1F
3CED17C6
3D64191A
3C64BCAE
3D100C52
BEB1CC10
3D38E5C5
BD4A569B
3DE9D1F6
3D6DE97D
3DFAA25E
BEA3D31C
3D837500
BD3F6E3F
3D29AB2A
BD3B6CBE
BD8E1DEB
BE17CC3A
BD86C54C
BB1C0585
BE1D8ADB
BE05436C
BE021188
3C92A950
3D44295A
3E852546
BEAC2E34
3E76D091
3E1E4A38
3DD23A2A
3E0075F7
3DD64303
BE86D1E1
3C91AFC0
BD70489D
BED76C8B
BE8F0308
3E35C7CE
BD23A29C
BE21743F
3E38AB0D
BC8C1FC9
3DE8A1E0
3D0EF34D
3E102603
3DF8572A
BE733871
BDA7685A
BE423B79
BDFA82E8
BD8FF5C7
BE84CEC4
BCF6555C
BDC10386
BDB7F499
BDBEA78B
BDCB6178
BEBAB4B7
3E16F2A6
3E194856
BD8AC190
BE90F909
BE24DD2F
3D90F734
3E073040
3D8D7386
3E8BBC2C
BEA21038
3BEF97D3
BDC5C1C6
3E1FD36F
3E461D00
BE19A6B5
BE172EF1
3CC4ED70
BD70E6F3
BD947C74
BE9ADC0A
BD7FBACB
3E6F9DB2
BE9E939F
3E4B8A5D
3CB634DB
3E9C17EC
BDFAE686
BE113943
BDB5DCC6
3E6639D6
3E1D8D7A
BDB68C69
3DEADD59
3D8265F1
BC118274
BEB995AB
3D2D00B4
3D393FF2
3CE0BD45
BD803AB8
BEA0331E
3DC9491F
3E67FF58
3DE9E6EF
BDA8038A
3DCEFDCA
3DB74470
BDDB9B67
3D752C9D
3DFF9724
BE8A2B17
BE2EBC41
3E655B03
BE4703B0
BE56C8B4
BE2346DC
BD6A172B
3DE15769
3D973B86
BDA3AFB8
BE322A6F
3DFC5048
BEAD7732
BD116766
BE91CEAF
3E590C0B
389653FB
BCCFD6D8
BE3E9E1B
BD3542A2
3E4B295F
3DD39970
3E7251C2
3E0E6080
BE43AFB8
BDE9F6A9
BD91B717
BE80346E
3D43F4ED
BE08850A
BE62B94E
BD337B8D
BDE35E74
3E8A137F
3E830BE1
3E6F227D
3E916DB1
BE460568
BD1DF224
BE90F909
BE09E450
3D391B3F
3BD06863
3C96DD27
3D14E3BD
BA1198EF
3E3B4F61
BDB78FEF
3DF9F01C
3D17310A
3E32E1EF
BE277EE5
BEA56580
BDB8AC19
BBD0A824
3DCF12C2
3E0D6777
3CFEFE0D
BD698138
BD421F2A
BE29C23B
3E3620EF
3E18F712
3E18F1D4
3B5695A3
3DDF99C4
3DA99C7C
BE71FB40
3E239820
BD5B77C0
3DFA4E7B
3E3D97F6
BDF18549
BD8552A0
3DA06184
BE27C5AC
BD07442C
BE183F92
BE2A8438
3DBDDE37
3DAC52A4
BCC690DE
3DA40421
3D9F9592
BE91EF74
BD12E2FC
BDB225B7
3CD60419
3D0D716D
3E08D64D
3BFD1DCD
BE9176DE
3DD15DF6
BDB26FA4
BE5DAF8E
BE6A3055
3DA26C3C
BE27A637
BEADB4CC
BCD610AE
3E11782D
3E56A401
BE29E450
3E803D9B
BE0198F2
3D9C62A2
BDCFE47A
3D66E222
3E47E521
3E4486AD
